{"[unused671]": 676, "##gar": 6843, "jobs": 5841, "##hom": 23393, "novgorod": 24338, "exercising": 28428, "replies": 14054, "##wright": 26460, "troll": 18792, "regina": 12512, "##tian": 10772, "estates": 8707, "mythology": 11327, "nichols": 15746, "##night": 15864, "darmstadt": 28381, "55th": 29075, "mania": 29310, "fry": 14744, "##sen": 5054, "slavic": 13838, "bitter": 8618, "[unused812]": 817, "reformed": 9114, "sacrament": 28958, "court": 2457, "derivative": 13819, "po": 13433, "georgia": 4108, "##wara": 11872, "aerospace": 13395, "barbarian": 25075, "##pid": 23267, "selangor": 28904, "##gens": 21230, "villiers": 25333, "##mple": 23344, "zeta": 23870, "macquarie": 23903, "##swick": 27720, "cupped": 13740, "omar": 13192, "positioning": 19120, "##wash": 28556, "shelf": 11142, "puebla": 27452, "february": 2337, "##so": 6499, "ku": 13970, "[unused625]": 630, "emitted": 22627, "simulator": 25837, "cartel": 21680, "naomi": 12806, "##\u0645": 22192, "##iac": 20469, "really": 2428, "barnes": 9957, "uranium": 14247, "##ogo": 22844, "##rge": 20800, "ghetto": 17276, "henrik": 18745, "devoted": 7422, "transit": 6671, "[unused741]": 746, "piss": 18138, "paranoid": 19810, "frigates": 22833, "fabio": 25616, "##\u85e4": 30470, "##analysis": 25902, "urging": 14328, "drunken": 15967, "##loid": 27710, "[unused862]": 867, "##vil": 14762, "engineered": 13685, "atheist": 23503, "chases": 29515, "aquarium": 18257, "nouveau": 25272, "christ": 4828, "##uid": 21272, "[unused808]": 813, "##sibility": 28255, "##uts": 16446, "21": 2538, "mills": 6341, "notation": 14869, "dallas": 5759, "convened": 19596, "merchants": 10310, "watery": 28259, "iowa": 5947, "##tung": 21847, "##ctus": 22675, "av": 20704, "queen": 3035, "substitution": 20885, "incomes": 29373, "lucius": 15639, "whoa": 23281, "nawab": 26543, "prepared": 4810, "##18": 15136, "knighted": 19572, "veterans": 8244, "##sle": 25016, "##reus": 23446, "consolation": 24831, "over": 2058, "fewer": 8491, "\u06c1": 1308, "##lma": 19145, "352": 28906, "cities": 3655, "decommissioned": 14394, "theirs": 17156, "treat": 7438, "##tarian": 28897, "trader": 17667, "\u05d7": 1248, "projective": 27473, "reproduce": 21376, "##ently": 28198, "lindsay": 12110, "ignorant": 21591, "plum": 22088, "swallowed": 7351, "homage": 14822, "paddy": 16063, "##\u5cf6": 30359, "##alis": 13911, "eps": 20383, "dh": 28144, "welfare": 7574, "##national": 25434, "1641": 25702, "laced": 17958, "embracing": 23581, "myth": 10661, "##roi": 26692, "qualifiers": 18956, "substantive": 27737, "regulation": 7816, "balloon": 13212, "slayer": 20005, "##tua": 26302, "##ogy": 15707, "[CLS]": 101, "eggs": 6763, "journey": 4990, "assessments": 20794, "destroyed": 3908, "reason": 3114, "pajamas": 27621, "acacia": 24766, "##ens": 6132, "##fed": 25031, "environmentally": 25262, "sonya": 27926, "crusade": 16282, "muriel": 27616, "schwarz": 29058, "[unused640]": 645, "depths": 11143, "browns": 13240, "##don": 5280, "whom": 3183, "charming": 11951, "reckless": 18555, "##\u0964": 29880, "\u014b": 1106, "credits": 6495, "sensor": 13617, "parks": 6328, "anguish": 21782, "ambition": 16290, "[unused894]": 899, "finish": 3926, "dea": 26709, "colourful": 26102, "intercourse": 23198, "turnover": 20991, "astronauts": 25881, "convicted": 7979, "vietnam": 5148, "redskins": 17461, "annie": 8194, "position": 2597, "trent": 7990, "chambers": 8477, "##amp": 16613, "hour": 3178, "jerusalem": 6744, "[unused619]": 624, "dealings": 24069, "filly": 22062, "antioch": 19078, "\u91ce": 1963, "busiest": 20530, "\u4ebb": 1757, "warner": 6654, "undisclosed": 18206, "groaned": 9655, "kang": 16073, "bei": 21388, "[unused143]": 148, "linguistics": 15397, "participate": 5589, "jimi": 27624, "spence": 22186, "hurdles": 18608, "activities": 3450, "contact": 3967, "ss": 7020, "##res": 6072, "wildcats": 19495, "cyril": 16049, "[unused105]": 110, "coupe": 15130, "avoid": 4468, "[unused482]": 487, "##ologies": 20792, "amber": 8994, "##\u03b4": 29722, "universite": 22176, "##ria": 4360, "##\u9547": 30492, "\u961d": 1970, "bourgeois": 22846, "blessings": 24618, "stalled": 20659, "democratic": 3537, "java": 9262, "southward": 22161, "picket": 28972, "\u0f66": 1436, "1790": 13393, "[unused319]": 324, "##pressive": 27484, "religious": 3412, "boom": 8797, "##oto": 11439, "instructors": 19922, "##lak": 23451, "##rh": 25032, "holidays": 11938, "tho": 27793, "fusiliers": 27207, "##games": 26393, "execute": 15389, "\u5dde": 1836, "intimately": 29024, "bs": 18667, "appellate": 23240, "beneficial": 15189, "wines": 14746, "##rin": 6657, "cynthia": 15809, "crazy": 4689, "1833": 11040, "producer": 3135, "\u305f": 1661, "##hea": 20192, "##otho": 29288, "organisations": 8593, "colleen": 28385, "charge": 3715, "org": 8917, "cup": 2452, "action": 2895, "autobiography": 10828, "fixing": 15887, "rushes": 18545, "buttons": 11287, "seoul": 10884, "eats": 20323, "##\u03b7": 24824, "airfields": 25278, "moon": 4231, "creepy": 17109, "millennium": 10144, "gordon": 5146, "constitutional": 6543, "tracker": 27080, "##scu": 28817, "##load": 11066, "[unused799]": 804, "amherst": 19850, "positions": 4460, "jingle": 29262, "espionage": 21003, "\u2074": 1538, "josef": 12947, "##tat": 29336, "floating": 8274, "athletics": 6482, "##\u8279": 30465, "cab": 9298, "dem": 17183, "counselor": 17220, "rammed": 27653, "peaking": 13015, "##trics": 29392, "cantor": 26519, "##dio": 20617, "celaena": 29252, "dedication": 12276, "##wat": 24281, "outcome": 9560, "##scent": 27654, "spot": 3962, "treating": 12318, "asa": 17306, "drums": 3846, "commodities": 21955, "domestic": 4968, "##nick": 13542, "terrain": 9291, "paints": 23262, "##eca": 19281, "beale": 28371, "controversies": 25962, "1949": 4085, "##erted": 28728, "holes": 8198, "melville": 20154, "1971": 3411, "toulouse": 17209, "slovakia": 10991, "penal": 18476, "bestseller": 24304, "quite": 3243, "handle": 5047, "pottery": 11378, "tyres": 24656, "calgary": 10112, "1899": 6166, "tbilisi": 22406, "##mpt": 27718, "simi": 28684, "locking": 14889, "bumper": 21519, "rann": 26312, "pac": 14397, "##cina": 28748, "negative": 4997, "peter": 2848, "bottom": 3953, "collarbone": 29600, "[unused478]": 483, "turning": 3810, "trained": 4738, "argue": 7475, "mead": 19855, "vortex": 23463, "##uation": 14505, "expenses": 11727, "trickle": 26027, "extras": 26279, "monitoring": 8822, "differentiate": 21032, "reigned": 21236, "unstable": 14480, "batsman": 13953, "385": 24429, "olympiad": 25225, "kingston": 9803, "\u20ac": 1574, "not": 2025, "surfaces": 9972, "\u06d2": 1310, "peered": 10757, "bilbao": 25427, "modulation": 25502, "kept": 2921, "runaway": 19050, "nuclei": 23767, "attackers": 17857, "lie": 4682, "1954": 4051, "##mes": 7834, "drowned": 12805, "footprint": 24319, "adjustments": 24081, "leopold": 12752, "cheney": 23745, "cell": 3526, "harm": 7386, "northamptonshire": 21367, "fleetwood": 23866, "hudson": 6842, "24th": 13386, "flopped": 24723, "newsletter": 17178, "steamer": 18027, "##mount": 20048, "##cure": 23887, "orthodox": 6244, "##coll": 26895, "levi": 11902, "pat": 6986, "occupied": 4548, "consonants": 19694, "##llen": 12179, "lids": 26122, "##fold": 10371, "saturday": 5095, "##founded": 21001, "[unused855]": 860, "july": 2251, "96": 5986, "porsche": 16099, "poked": 16826, "robbery": 13742, "poisoned": 17672, "toro": 23790, "##\u2088": 30084, "iata": 9833, "unidentified": 20293, "grenada": 29153, "##\u2191": 30112, "liner": 11197, "are": 2024, "shouts": 15701, "wartime": 12498, "damp": 10620, "aggravated": 25817, "##odies": 27391, "concord": 16557, "projections": 21796, "baseball": 3598, "municipalities": 7602, "##bank": 9299, "collaborations": 17437, "coastline": 15458, "problematic": 18636, "##ccus": 27631, "director": 2472, "provision": 9347, "##list": 9863, "obvious": 5793, "indy": 18214, "\u592b": 1813, "##runner": 23195, "##sities": 24279, "ceased": 7024, "clenching": 23970, "crow": 11465, "falkland": 25257, "click": 11562, "##yck": 28377, "[unused160]": 165, "encourage": 8627, "[unused387]": 392, "phylogenetic": 23192, "##\u09ae": 29906, "paulo": 9094, "gong": 17242, "##mat": 18900, "zee": 23727, "stalker": 23883, "bug": 11829, "2d": 14134, "ham": 10654, "reiterated": 28960, "180": 8380, "nokia": 22098, "##lo": 4135, "gma": 20917, "approximation": 20167, "trial": 3979, "##long": 10052, "ancestor": 13032, "##wei": 19845, "##mian": 20924, "grammatical": 24402, "unlock": 19829, "badger": 24186, "##llie": 23697, "##ality": 23732, "[unused370]": 375, "jones": 3557, "fearful": 19725, "mesa": 15797, "colder": 21399, "servant": 7947, "piers": 16067, "##\u092f": 29868, "##col": 25778, "##con": 8663, "1799": 13839, "trojan": 23445, "expect": 5987, "##\u0bc1": 29933, "principals": 27928, "mixing": 6809, "holdings": 9583, "##rocity": 21735, "templar": 27850, "underside": 17313, "serves": 4240, "programming": 4730, "northwestern": 7855, "bosnia": 9562, "signature": 8085, "injected": 19737, "1746": 24507, "##chers": 21844, "macedonia": 11492, "dignitaries": 27960, "##ri": 3089, "organization": 3029, "##cliffe": 18115, "rolf": 23381, "eyes": 2159, "attract": 9958, "custody": 9968, "manifest": 19676, "loyalist": 23414, "octopus": 24318, "candidates": 5347, "cis": 20199, "hoarse": 21221, "##neas": 26737, "buff": 23176, "adult": 4639, "##lving": 25780, "fingers": 3093, "[unused288]": 293, "mechanically": 27846, "collective": 7268, "rodriguez": 9172, "apocalypse": 16976, "##ann": 11639, "\u0916": 1316, "dona": 24260, "simpsons": 19047, "badges": 23433, "minions": 28071, "curse": 8364, "maintained": 5224, "cyber": 16941, "##gni": 29076, "[unused277]": 282, "##\u30a7": 30223, "transmit": 19818, "me": 2033, "laborers": 23428, "##rti": 28228, "chaplain": 14011, "jack": 2990, "work": 2147, "hovering": 16349, "sure": 2469, "down": 2091, "40": 2871, "barangay": 20937, "immersed": 26275, "##dium": 12811, "##pps": 28281, "##rkin": 26891, "jaipur": 28355, "honestly": 9826, "shang": 29382, "huron": 21899, "chinatown": 22321, "##erik": 27350, "posting": 14739, "attracting": 15411, "bukit": 29007, "advancement": 12607, "\u0127": 1103, "juliette": 24696, "fantasia": 29203, "chants": 29534, "footsteps": 9717, "consulted": 17535, "decor": 25545, "rotterdam": 15632, "primarily": 3952, "infant": 10527, "eternal": 10721, "##ques": 10997, "##titled": 21309, "medical": 2966, "linked": 5799, "that": 2008, "brick": 5318, "consul": 11801, "##\u11b8": 30024, "install": 16500, "girlfriends": 27408, "##\u026f": 29688, "depending": 5834, "privy": 14452, "attack": 2886, "##l": 2140, "positive": 3893, "temperature": 4860, "terrestrial": 12350, "forums": 21415, "turks": 12896, "\u661f": 1866, "slovak": 12747, "attempting": 7161, "doing": 2725, "##sher": 19603, "accuse": 26960, "411": 27517, "vox": 29450, "dunne": 26553, "##[": 29634, "##\u30bb": 30234, "##yin": 25811, "yourselves": 25035, "##rson": 17753, "haas": 22996, "society": 2554, "baltic": 11275, "compensated": 29258, "authority": 3691, "\u062b": 1274, "##ally": 3973, "expecting": 8074, "rattle": 23114, "hundreds": 5606, "volunteers": 7314, "tyrol": 27193, "swimming": 5742, "error": 7561, "\u3082": 1681, "judgment": 8689, "97": 5989, "honda": 11990, "coats": 15695, "camouflage": 21356, "deeds": 15616, "quarterly": 12174, "##33": 22394, "##heads": 13038, "intend": 13566, "tour": 2778, "[unused916]": 921, "##acle": 18630, "newsweek": 26948, "specialists": 15744, "##hdi": 22960, "##iche": 17322, "amnesia": 29222, "flourishing": 29571, "venues": 9356, "ve": 2310, "##sburg": 9695, "deprived": 17676, "\u00fe": 1101, "colin": 6972, "s": 1055, "mixtape": 18713, "tours": 7562, "unity": 8499, "reputed": 22353, "romano": 22070, "bladder": 24176, "##ision": 19969, "becomes": 4150, "beam": 7504, "binds": 20817, "specializing": 14055, "reproductive": 15124, "##tai": 15444, "titan": 16537, "dakota": 7734, "practiced": 9051, "boilers": 20412, "ribbons": 22688, "climates": 24734, "multinational": 20584, "shaking": 5513, "moscow": 4924, "##ten": 6528, "[unused725]": 730, "##ma": 2863, "[unused693]": 698, "skirt": 9764, "resembles": 12950, "tanzania": 11959, "##enne": 24336, "1950": 3925, "jock": 23407, "conor": 20545, "reeling": 28515, "catalonia": 16711, "judith": 12924, "spectacle": 21177, "mariana": 22097, "gottingen": 23607, "nearer": 20388, "europa": 12124, "cornered": 25878, "bulge": 23708, "recognise": 17614, "mountainous": 14897, "weakness": 11251, "altered": 8776, "jaws": 16113, "##grin": 24860, "seduction": 26962, "103": 9800, "castile": 15656, "athlete": 8258, "antibodies": 22931, "##28": 22407, "##lysis": 26394, "##tory": 7062, "digital": 3617, "warming": 12959, "steak": 21475, "householder": 7536, "motives": 17108, "carvings": 22838, "new": 2047, "1976": 3299, "##\u0263": 29683, "deployed": 7333, "comprising": 9605, "##rix": 17682, "\u767a": 1914, "65": 3515, "inhibition": 23586, "bat": 7151, "arsenic": 29596, "seasonal": 12348, "##hir": 11961, "##zo": 6844, "sewage": 19873, "mystical": 17529, "minimize": 18478, "kong": 4290, "92": 6227, "isolated": 7275, "pose": 13382, "prescription": 20422, "##dry": 21190, "twitched": 16767, "##care": 16302, "macon": 20025, "isla": 25340, "protested": 11456, "avon": 16131, "##\u0e19": 29949, "cruelty": 18186, "marino": 17185, "lindsey": 17518, "limb": 15291, "victories": 9248, "con": 9530, "unconscious": 9787, "irrelevant": 22537, "\u00ac": 1078, "midsummer": 28171, "lowe": 14086, "airports": 13586, "hung": 5112, "##kled": 19859, "squads": 20191, "manifestation": 24491, "##\u2099": 19110, "lovers": 10205, "##11": 14526, "[unused327]": 332, "dom": 14383, "nitrate": 29607, "roach": 20997, "scrub": 18157, "bills": 8236, "uta": 28981, "seminole": 28909, "##pt": 13876, "eagerly": 17858, "hinted": 21795, "bahadur": 21715, "##ius": 4173, "##sion": 10992, "\u0565": 1223, "shelves": 15475, "layered": 21323, "hunts": 28526, "33": 3943, "manpower": 22039, "hamish": 28859, "councillors": 13189, "goblin": 22639, "serum": 20194, "became": 2150, "anders": 15387, "cox": 9574, "furnished": 19851, "reliefs": 27670, "greater": 3618, "coding": 16861, "relatives": 9064, "aggressive": 9376, "##tees": 28313, "##ocks": 25384, "##uno": 27819, "\u02b8": 1144, "##matic": 12644, "vale": 10380, "##\u30db": 30248, "mural": 15533, "hybrids": 23376, "cougars": 26317, "##ities": 6447, "\u1105": 1458, "queens": 8603, "kent": 5982, "silva": 11183, "restricted": 7775, "bottoms": 24196, "##dc": 16409, "footed": 28856, "style": 2806, "kilometers": 7338, "gliding": 20292, "##ntal": 15758, "ki": 11382, "illumination": 21203, "clube": 24852, "smarter": 25670, "##\u0e2a": 29956, "##lone": 27165, "wildly": 13544, "flour": 13724, "stills": 26105, "##pheus": 22809, "##lle": 6216, "strikers": 26049, "oslo": 9977, "connector": 19400, "redding": 26687, "pope": 4831, "harbour": 7440, "caliphate": 28034, "requirement": 9095, "elimination": 9614, "reykjavik": 28559, "##nir": 29339, "fading": 14059, "##ise": 5562, "taiwanese": 16539, "intersection": 6840, "303": 19988, "inaugurated": 11070, "thread": 11689, "eclipse": 13232, "surged": 18852, "symptoms": 8030, "bleeding": 9524, "vet": 29525, "scarlet": 11862, "placed": 2872, "compromised": 20419, "crews": 10604, "live": 2444, "caressing": 25296, "accompaniment": 22205, "teeth": 4091, "milo": 20359, "##tur": 20689, "day": 2154, "adolescent": 20274, "##rained": 27361, "##\u5e7f": 30368, "commune": 5715, "gabrielle": 16988, "mischief": 25166, "\u1106": 1459, "logos": 25571, "sa": 7842, "pounded": 13750, "albania": 10407, "paraguay": 13884, "marge": 25532, "groundwater": 22761, "##hane": 28006, "taxis": 25964, "severely": 8949, "##egorical": 27203, "dumping": 23642, "##actic": 28804, "erie": 13374, "prejudice": 18024, "seekers": 24071, "grazed": 26627, "##movable": 25661, "##ending": 18537, "##eak": 25508, "##\u2113": 30105, "eligibility": 11395, "verified": 20119, "atlanta": 5865, "adler": 17969, "centralized": 22493, "swedish": 4467, "localized": 22574, "##fies": 14213, "romantic": 6298, "incarnation": 15715, "randolph": 13031, "##stered": 24167, "rush": 5481, "isolation": 12477, "##ysis": 20960, "\u2193": 1586, "leicester": 11258, "##\u063a": 29831, "wrapping": 12252, "umpire": 20887, "swung": 7671, "##wick": 7184, "finalized": 23575, "they": 2027, "panel": 5997, "capita": 8353, "rode": 8469, "fold": 10671, "submit": 12040, "ar": 12098, "cuban": 9642, "favorites": 20672, "philip": 5170, "transitions": 22166, "dislike": 18959, "invention": 11028, "celebrity": 8958, "caledonia": 19305, "code": 3642, "##ace": 10732, "schuster": 24253, "##sco": 9363, "alsace": 24922, "201": 16345, "psalms": 26130, "proposes": 17146, "foreword": 23059, "rolls": 9372, "##cia": 7405, "unit": 3131, "##mark": 10665, "designated": 4351, "bamboo": 15216, "glowed": 16497, "chloride": 19057, "##as": 3022, "amateur": 5515, "laden": 14887, "lesson": 10800, "deadline": 15117, "monument": 6104, "[unused447]": 452, "##orra": 24285, "iona": 22347, "[unused750]": 755, "honey": 6861, "embroidery": 29507, "hoover": 17443, "everything": 2673, "judges": 6794, "##drum": 21884, "athenian": 26956, "[unused827]": 832, "slid": 4934, "welles": 23447, "##mming": 25057, "1911": 5184, "assaulted": 17536, "candle": 13541, "##ig": 8004, "##zman": 24340, "rampant": 25883, "blanc": 18698, "salvation": 12611, "undergoes": 29129, "##cken": 19766, "flowering": 10902, "\u0cbe": 1402, "mortimer": 17416, "ireland": 3163, "task": 4708, "mccall": 25790, "holly": 9079, "exceeded": 14872, "##oj": 29147, "return": 2709, "backside": 25065, "laird": 21964, "##izan": 27334, "outlet": 13307, "tubular": 25147, "crimson": 11466, "disaster": 7071, "sinai": 20837, "bubbling": 25054, "contemplating": 25247, "professions": 22797, "\u8a9e": 1950, "dying": 5996, "dale": 8512, "steal": 8954, "presentations": 18216, "potatoes": 14629, "afl": 10028, "diverted": 18356, "##lho": 28061, "\u116d": 1477, "##\u2228": 30130, "##dlow": 27002, "bankrupt": 17482, "kilkenny": 17131, "##\u308a": 30212, "hanna": 10579, "jamaica": 9156, "packed": 8966, "carving": 18441, "mora": 26821, "venice": 7914, "joanna": 15730, "interactions": 10266, "##abia": 29039, "sponsoring": 29396, "jam": 9389, "trenton": 17148, "harriet": 14207, "italians": 16773, "interest": 3037, "manipulate": 17708, "deficit": 15074, "prostitute": 19215, "vip": 21722, "##utation": 26117, "advantages": 12637, "accordingly": 11914, "affection": 12242, "desperate": 7143, "procedural": 24508, "caress": 21753, "slick": 13554, "concourse": 28571, "##\u1d2e": 30027, "##ern": 11795, "charley": 20430, "sr": 5034, "visiting": 5873, "##\u3042": 30172, "dubbed": 9188, "##nism": 28113, "lilly": 14765, "##ayo": 28852, "twain": 24421, "\u09bf": 1379, "incarcerated": 23995, "##\u694a": 30409, "adapted": 5967, "##ela": 10581, "canyon": 8399, "pump": 10216, "pueblo": 18273, "donate": 21357, "amazingly": 29350, "\u307e": 1677, "during": 2076, "shrill": 28349, "doo": 20160, "holt": 12621, "tomatoes": 12851, "marcel": 13389, "gaped": 23832, "niagara": 15473, "\u56fd": 1799, "amazed": 15261, "pierced": 16276, "##meister": 28824, "chant": 16883, "prominent": 4069, "##tched": 28265, "[unused49]": 50, "porto": 13809, "tobacco": 9098, "dent": 21418, "tsar": 17608, "carrying": 4755, "##cote": 19800, "##sei": 20240, "caressed": 21473, "##words": 22104, "drying": 17462, "fission": 27521, "##um": 2819, "##igh": 18377, "##illa": 9386, "wolves": 8588, "whig": 21632, "persian": 4723, "seaside": 20276, "klaus": 16536, "1771": 20708, "unfortunate": 15140, "jameson": 22324, "##baum": 14898, "thrusts": 25842, "##\u062a": 29817, "##\u2019": 30056, "oregon": 5392, "translation": 5449, "oct": 13323, "precedence": 23359, "pebbles": 28962, "decker": 20946, "fluent": 19376, "##au": 4887, "zhu": 15503, "[unused501]": 506, "##uce": 18796, "robber": 27307, "mad": 5506, "##stan": 12693, "low": 2659, "variance": 23284, "[unused911]": 916, "orderly": 23589, "delicate": 10059, "yves": 19687, "containers": 16143, "researched": 18800, "desmond": 16192, "frey": 20068, "oath": 11292, "##isson": 24077, "stephen": 4459, "ripe": 22503, "assessment": 7667, "museo": 19713, "cheated": 22673, "173": 19410, "crimean": 20516, "##dm": 22117, "##nath": 16207, "cold": 3147, "celebrated": 6334, "causing": 4786, "full": 2440, "capital": 3007, "complaint": 12087, "##idi": 28173, "phases": 12335, "streaked": 21276, "##hall": 9892, "stack": 9991, "avoided": 9511, "km": 2463, "sufi": 21845, "bernard": 6795, "math": 8785, "cautious": 17145, "rockefeller": 16696, "##yra": 19563, "jillian": 27286, "##we": 8545, "##eau": 10207, "salute": 17664, "kenton": 25446, "colt": 9110, "organisation": 5502, "latin": 3763, "km\u00b2": 3186, "ella": 11713, "exhibition": 4538, "hardly": 6684, "sweaty": 19889, "brisbane": 7717, "turret": 14493, "proteins": 8171, "lectures": 8921, "into": 2046, "##lous": 15534, "goldman": 17765, "existent": 25953, "destination": 7688, "check": 4638, "##stone": 9221, "turbine": 14027, "[unused549]": 554, "dress": 4377, "neared": 20832, "lurking": 24261, "accidents": 13436, "spd": 23772, "##mber": 21784, "bit": 2978, "additive": 29167, "##wi": 9148, "nearby": 3518, "vanessa": 13226, "bram": 20839, "##\u00b4s": 21932, "##jing": 29518, "##po": 6873, "wei": 11417, "balfour": 27560, "rooftop": 23308, "##take": 15166, "##\u0939": 29875, "dominated": 6817, "shield": 6099, "\u2093": 1563, "boulevard": 8459, "worrying": 15366, "taiwan": 6629, "##\u0630": 29822, "\u6797": 1881, "##mics": 22924, "shanghai": 8344, "transferring": 14391, "swirling": 16499, "##\u03b9\u03b1": 27432, "finch": 16133, "surrounded": 5129, "pirate": 11304, "jeep": 14007, "pollution": 10796, "avoidance": 24685, "suffering": 6114, "ee": 25212, "duchy": 11068, "##itan": 25451, "##lash": 27067, "outlawed": 29131, "##sfield": 15951, "mumbai": 8955, "##ants": 11390, "shuffle": 23046, "##\u30c6": 30239, "relaxed": 8363, "##shire": 7430, "decks": 19963, "parenting": 28586, "blur": 14819, "1980s": 3865, "meaningful": 15902, "oboe": 22523, "lausanne": 22256, "[unused991]": 996, "manchu": 26650, "stoke": 13299, "picking": 8130, "\u56db": 1798, "pockets": 10306, "droplets": 27126, "##\u1d48": 30034, "288": 24841, "\u2018": 1520, "##wed": 15557, "[unused238]": 243, "tan": 9092, "##itical": 26116, "monsoon": 19183, "breasts": 12682, "carthage": 21959, "postage": 22981, "costly": 17047, "republican": 3951, "idiot": 10041, "1918": 4271, "stated": 3090, "hyper": 23760, "embrace": 9979, "diane": 12082, "benson": 11999, "html": 16129, "pomeranian": 17717, "jury": 6467, "tech": 6627, "##tos": 13122, "318": 27003, "[unused29]": 30, "albany": 10283, "removal": 8208, "meat": 6240, "obligation": 14987, "46": 4805, "travel": 3604, "\u062d": 1276, "##\u1d2c": 30026, "##\u221e": 30128, "furniture": 7390, "oddly": 15056, "sheffield": 8533, "[unused697]": 702, "adaptations": 17241, "battlefield": 11686, "expressive": 22570, "deities": 17091, "onion": 20949, "taluk": 23140, "fiery": 15443, "liberals": 13350, "later": 2101, "##piece": 11198, "mysteries": 15572, "##kow": 24144, "##mental": 26901, "surfaced": 15791, "tumble": 28388, "[unused145]": 150, "signed": 2772, "manifested": 24906, "pork": 15960, "[unused208]": 213, "mcgrath": 23220, "hotter": 22302, "##thermal": 23367, "1870s": 14896, "hellenistic": 27464, "##iii": 28954, "\u09a7": 1365, "demonstrates": 16691, "tatiana": 22725, "mcnamara": 28340, "dentist": 24385, "pearl": 7247, "raion": 24235, "rosary": 28291, "presiding": 18131, "shower": 6457, "pointer": 20884, "monkey": 10608, "hannah": 8410, "surveying": 19654, "shoving": 15866, "slave": 6658, "capt": 14408, "ours": 14635, "provoke": 27895, "apprentice": 13357, "altitude": 7998, "##yana": 16811, "retrieved": 5140, "patron": 9161, "carnage": 27450, "##jk": 15992, "den": 7939, "circulated": 17640, "founded": 2631, "##\u266f": 30154, "nun": 16634, "##ae": 6679, "immunity": 15403, "[unused404]": 409, "coalition": 6056, "\u062c": 1275, "giggling": 21783, "falsely": 23123, "vic": 10967, "khalid": 21828, "smartphone": 26381, "patel": 20455, "charleston": 10907, "1774": 17593, "##\u0638": 29829, "##\u6cb3": 30425, "choreographer": 17334, "13": 2410, "elegance": 27745, "annually": 6604, "keep": 2562, "disturbances": 24535, "wa": 11333, "abs": 14689, "##\u2075": 30074, "nz": 20008, "saddle": 12279, "benefited": 19727, "everyday": 10126, "selma": 28112, "ledger": 27106, "[unused28]": 29, "shaping": 20300, "eng": 25540, "radha": 26498, "\u30a3": 1694, "carlisle": 13575, "eric": 4388, "##ural": 11137, "soprano": 10430, "excavated": 15199, "1921": 4885, "vary": 8137, "electorate": 13694, "wraps": 19735, "jerk": 12181, "##erry": 19826, "occasions": 6642, "gb": 16351, "trends": 12878, "nanjing": 21455, "costello": 21015, "female": 2931, "hc": 16731, "be": 2022, "shortages": 22623, "[unused214]": 219, "dealers": 16743, "bohemian": 18063, "warmly": 22775, "innings": 7202, "yuan": 11237, "mei": 19734, "missy": 25019, "f1": 20069, "permanent": 4568, "##force": 14821, "##boy": 11097, "##iting": 15402, "diseases": 7870, "##bi": 5638, "potter": 10693, "[unused759]": 764, "igor": 14661, "aft": 16638, "##llas": 25816, "kitchener": 27154, "pools": 12679, "cite": 21893, "anxiously": 23403, "shrines": 22562, "andover": 29463, "[unused963]": 968, "graceful": 19415, "##weiler": 22384, "sonora": 26647, "romeo": 12390, "homogeneous": 24854, "leap": 11679, "push": 5245, "roanoke": 25899, "hind": 17666, "brothel": 27308, "roll": 4897, "thumped": 28963, "loops": 15932, "shuddered": 13937, "bushes": 14568, "##\u2192": 30113, "\u2500": 1615, "respectful": 26438, "yarmouth": 28792, "[unused834]": 839, "fortunes": 18023, "louis": 3434, "228": 22238, "airborne": 10519, "foo": 29379, "##type": 13874, "breach": 12510, "soared": 29127, "spun": 7455, "339": 28977, "skinned": 19937, "pseudo": 18404, "sadler": 29012, "ravens": 17272, "blanco": 20036, "brody": 19631, "[unused599]": 604, "ile": 17869, "##ify": 8757, "thatcher": 21127, "##\u062e": 29821, "hopeful": 17772, "automated": 12978, "faux": 29276, "proceed": 10838, "churchill": 10888, "semantic": 21641, "archway": 28189, "560": 21267, "##bain": 29148, "##lase": 25002, "[unused257]": 262, "grammar": 8035, "pension": 11550, "sol": 14017, "enters": 8039, "indefinitely": 20733, "clear": 3154, "##ella": 8411, "myra": 23020, "##\u91d1": 30490, "##rde": 25547, "##\u0153": 29674, "kathmandu": 28045, "##isman": 20257, "philharmonic": 12355, "sales": 4341, "library": 3075, "164": 17943, "guildford": 26353, "##zine": 21254, "af": 21358, "tightening": 18711, "seed": 6534, "siblings": 9504, "##well": 4381, "patiently": 19080, "meant": 3214, "dayton": 14700, "##ca": 3540, "waterford": 17769, "\u0282": 1129, "spins": 23371, "[unused397]": 402, "principally": 16552, "explicitly": 12045, "##vinsky": 27704, "##line": 4179, "broadcasting": 5062, "east": 2264, "spill": 14437, "[unused244]": 249, "##tok": 18715, "\u098f": 1351, "offensive": 5805, "nl": 17953, "doctrines": 23252, "laying": 10201, "vista": 13005, "merit": 7857, "consciousness": 8298, "##tto": 9284, "##tour": 21163, "conversely": 18868, "necessitated": 29611, "pp": 4903, "##cat": 11266, "kelvin": 24810, "sylvie": 26009, "bob": 3960, "supervise": 28589, "evergreen": 16899, "convergence": 19143, "remix": 6136, "##lace": 19217, "enjoyed": 5632, "1947": 4006, "villa": 6992, "breakaway": 26321, "belinda": 24574, "somerville": 27209, "##\u0928": 29863, "middleweight": 18741, "##kko": 22426, "[unused456]": 461, "\u533a": 1782, "chemistry": 6370, "populations": 7080, "charting": 17918, "iec": 24940, "[unused479]": 484, "##tist": 16774, "wed": 21981, "priority": 9470, "angelica": 19458, "poetic": 13805, "##ivist": 21997, "##aar": 26526, "kolkata": 13522, "lash": 25210, "listen": 4952, "partly": 6576, "gilmore": 22999, "restricting": 26996, "scan": 13594, "[unused633]": 638, "answered": 4660, "##ook": 14659, "penetrated": 21653, "exercises": 11110, "hallway": 6797, "firstly": 15847, "frost": 10097, "speak": 3713, "needle": 12201, "poly": 26572, "giorgio": 17697, "antwerp": 14003, "worm": 15485, "##yna": 18279, "essex": 8862, "##\u02b3": 29708, "carriage": 9118, "saxe": 24937, "##ocytes": 28788, "discount": 19575, "##dle": 10362, "royalist": 20796, "##ey": 3240, "##gam": 22864, "savior": 24859, "001": 25604, "hiv": 9820, "tribes": 6946, "smuggling": 19535, "goodbye": 9119, "##shida": 25541, "##plin": 28296, "link": 4957, "##therapy": 20900, "subdivision": 12572, "hua": 23064, "scripture": 18919, "rosie": 15820, "interrupt": 17938, "\u5bae": 1824, "genuine": 10218, "vaughn": 18220, "isaiah": 18850, "incompatible": 25876, "1895": 6301, "##ere": 7869, "fellows": 13572, "weimar": 20695, "safely": 9689, "cushion": 22936, "harmon": 25546, "investigators": 14766, "caucasus": 16512, "rating": 5790, "augmented": 19335, "donegal": 25415, "die": 3280, "secession": 22965, "##\u0f0b": 29960, "showdown": 24419, "##gami": 26517, "appeals": 9023, "revised": 8001, "keys": 6309, "piano": 3682, "fundamental": 8050, "venture": 6957, "##\u06ba": 29843, "zeppelin": 22116, "nigel": 12829, "[unused147]": 152, "cinderella": 21686, "champaign": 28843, "1965": 3551, "##der": 4063, "##ede": 14728, "simulation": 12504, "shu": 18454, "hearth": 22885, "1884": 6988, "##ount": 21723, "drills": 28308, "descriptive": 22726, "asturias": 26798, "64": 4185, "bismarck": 22029, "francs": 24313, "probation": 19703, "saw": 2387, "##hyl": 29598, "liege": 17766, "biennale": 21140, "te": 8915, "##dice": 24598, "##\u0989": 29886, "fargo": 23054, "manifesto": 17124, "##eon": 10242, "concentrations": 14061, "hara": 18820, "kidding": 12489, "discourse": 15152, "etienne": 16821, "wheeled": 17320, "drafting": 21168, "turk": 22883, "faint": 8143, "\u2206": 1594, "noticed": 4384, "hayden": 13872, "sailors": 11279, "sighing": 19381, "##khand": 25910, "vertical": 7471, "veins": 9607, "quasi": 17982, "suspension": 8636, "rounded": 8352, "mtv": 8692, "117": 12567, "kevin": 4901, "lombard": 23441, "bryson": 26845, "wong": 11789, "##ior": 25346, "mocking": 19545, "##roid": 22943, "heavyweight": 8366, "##\u7fa9": 30462, "[unused740]": 745, "corey": 18132, "configured": 26928, "##pour": 27757, "discreet": 29321, "com": 4012, "account": 4070, "murmured": 7152, "1877": 7557, "##lford": 23211, "##ress": 8303, "oaxaca": 26923, "##veda": 28614, "december": 2285, "income": 3318, "packing": 14743, "chester": 8812, "##rates": 20370, "[unused102]": 107, "##lion": 18964, "toxic": 11704, "\u099b": 1357, "##asi": 21369, "surfing": 19967, "[unused202]": 207, "batter": 23801, "women": 2308, "[unused682]": 687, "##rca": 18992, "mavericks": 28330, "marriage": 3510, "edith": 13257, "1798": 13036, "fi": 10882, "1874": 7586, "breathless": 16701, "leisure": 12257, "mccain": 19186, "spark": 12125, "would": 2052, "turbo": 15386, "##mura": 16069, "##cis": 22987, "[unused587]": 592, "kara": 13173, "month": 3204, "cowboys": 11666, "##udes": 22087, "contiguous": 25177, "##nail": 25464, "este": 28517, "zagreb": 12974, "castillo": 19371, "topography": 21535, "##hers": 22328, "##av": 11431, "\u2217": 1598, "boss": 5795, "##dre": 16200, "fracture": 19583, ";": 1025, "##arus": 29133, "##stis": 29472, "awful": 9643, "decreased": 10548, "##bb": 10322, "view": 3193, "1670": 26253, "harlan": 24276, "cunningham": 13652, "##kra": 22272, "##iology": 20569, "taliban": 16597, "entire": 2972, "test": 3231, "protection": 3860, "tales": 7122, "##bush": 22427, "\u208a": 1557, "crowned": 10249, "\u00a2": 1068, "\u2088": 1555, "frustrated": 10206, "saints": 6586, "\u209b": 1570, "jacobs": 12988, "sudden": 5573, "excitedly": 23885, "scaling": 25169, "insisting": 22604, "pieter": 23759, "creaked": 28068, "1648": 22533, "cops": 10558, "##leg": 23115, "regained": 11842, "##omics": 25524, "english": 2394, "towers": 7626, "seized": 8243, "##\u30ab": 30226, "ages": 5535, "##tie": 9515, "pains": 20398, "filled": 3561, "reelected": 20847, "wendell": 24526, "hank": 9180, "arabia": 9264, "distracting": 25012, "spraying": 29035, "luxembourg": 10765, "lottery": 15213, "grams": 20372, "christchurch": 15880, "##ost": 14122, "cha": 15775, "following": 2206, "##\u09b6": 29910, "wylie": 29152, "czech": 5569, "drug": 4319, "\u1d56": 1504, "jammu": 21433, "demo": 9703, "nicholas": 6141, "adventures": 7357, "disco": 12532, "##tub": 28251, "baron": 5797, "learnt": 20215, "zionist": 21379, "##oid": 9314, "mongolian": 17855, "soloists": 27516, "##ch": 2818, "darling": 9548, "[unused872]": 877, "skate": 17260, "leicestershire": 20034, "annette": 22521, "##essed": 23656, "wii": 16568, "accomplished": 8885, "breakup": 19010, ".": 1012, "coincidentally": 27542, "frenchman": 26529, "##vie": 13469, "ethel": 19180, "[unused504]": 509, "plotting": 20699, "component": 6922, "turin": 13667, "reformation": 13708, "horticultural": 26235, "contexts": 18046, "##gist": 24063, "denim": 26762, "##utnant": 24620, "developed": 2764, "##chan": 14856, "##\u0444": 29749, "[unused388]": 393, "planck": 26486, "\u203a": 1533, "tests": 5852, "bodyguard": 16174, "##most": 11800, "felipe": 17095, "intrusion": 24554, "loaded": 8209, "##\u1109": 29997, "community": 2451, "1883": 7257, "practically": 8134, "articulated": 20742, "papua": 13049, "publication": 4772, "fontaine": 25749, "os": 9808, "cochrane": 22329, "investment": 5211, "henson": 27227, "study": 2817, "##ase": 11022, "##yo": 7677, "1851": 8792, "[unused191]": 196, "##points": 26521, "chrysler": 17714, "##bby": 14075, "brigham": 22727, "builds": 16473, "planner": 24555, "grayson": 17556, "swimmers": 21669, "##balance": 26657, "arranger": 13981, "##eur": 11236, "##kers": 11451, "structurally": 29060, "44": 4008, "dodged": 28339, "soccer": 4715, "ding": 22033, "macleod": 23075, "gust": 26903, "expand": 7818, "##lder": 16502, "spiked": 25362, "##\u1162": 30007, "##aged": 18655, "ken": 6358, "\u65e5": 1864, "arroyo": 23882, "bone": 5923, "ballad": 11571, "fridge": 16716, "willard": 19138, "##arians": 28369, "##rne": 12119, "byte": 24880, "##walker": 26965, "three": 2093, "allah": 16455, "dos": 9998, "conrad": 10931, "sw": 25430, "underworld": 13607, "leary": 22986, "supplement": 12448, "dusk": 18406, "fellowship": 7881, "##vina": 17948, "commanding": 7991, "##40": 12740, "pouring": 13053, "agreement": 3820, "fastest": 7915, "50th": 12951, "[unused302]": 307, "##wyl": 27740, "sides": 3903, "triangular": 14023, "actress": 3883, "components": 6177, "resignation": 8172, "alternating": 15122, "##rae": 16652, "benign": 28378, "localities": 19664, "incorporation": 16935, "##bula": 28507, "coca": 16787, "##oxide": 28479, "stairs": 5108, "ds": 16233, "notification": 26828, "stevens": 8799, "ahead": 3805, "gregory": 7296, "skies": 15717, "imaginative": 28575, "[unused802]": 807, "help": 2393, "ideology": 13165, "bubba": 19606, "olympic": 4386, "lines": 3210, "##he": 5369, "column": 5930, "arabic": 5640, "enemies": 6716, "##sr": 21338, "thong": 27468, "##hora": 16977, "bony": 22678, "notice": 5060, "silky": 18848, "suspiciously": 21501, "circumstance": 25652, "sired": 26940, "prix": 5431, "salesman": 18968, "ulrich": 19619, "pakistani": 9889, "finely": 22126, "rifles": 9494, "cbs": 6568, "##\u2082": 8229, "[unused71]": 72, "shoes": 6007, "fit": 4906, "##ckman": 24080, "until": 2127, "sud": 19219, "##sc": 11020, "lila": 19286, "##\u00b9": 27904, "hickory": 28158, "295": 21679, "warn": 11582, "fix": 8081, "aj": 19128, "spans": 14798, "##pia": 19312, "catcher": 13795, "julius": 10396, "##\u062b": 29818, "scooted": 24289, "fielded": 20988, "##mament": 28119, "barnsley": 25139, "thief": 12383, "frontiers": 28750, "symmetry": 14991, "##ters": 7747, "housed": 7431, "bolton": 12118, "##?": 29632, "pascal": 17878, "darrell": 23158, "##\u0629": 19433, "higgins": 13466, "##gc": 18195, "##pire": 20781, "##nous": 18674, "repaired": 13671, "psychiatry": 18420, "##ker": 5484, "vow": 19076, "lviv": 23814, "daniela": 28541, "##eiro": 17166, "\uff09": 1988, "musicians": 5389, "##w": 2860, "writing": 3015, "##dim": 22172, "emergence": 14053, "nu": 16371, "##ots": 12868, "reintroduced": 28263, "##tones": 11115, "\u2205": 1593, "drifted": 10070, "blazing": 17162, "li": 5622, "!": 999, "integral": 9897, "[unused524]": 529, "denise": 15339, "[unused395]": 400, "retreat": 7822, "cage": 7980, "devotion": 13347, "geoffrey": 11023, "orion": 18747, "cannabis": 17985, "cushions": 27205, "collaboration": 5792, "beech": 21760, "sioux": 16615, "##urs": 9236, "teenage": 9454, "nk": 25930, "mixes": 21109, "graduation": 7665, "sedimentary": 25503, "##\u662d": 30394, "ontario": 4561, "[unused329]": 334, "service": 2326, "spray": 12509, "demographic": 15982, "husky": 18758, "cumberland": 12310, "productive": 13318, "1665": 27676, "mhz": 11413, "czechoslovakia": 12833, "##far": 14971, "scarborough": 18603, "1800s": 19878, "##500": 29345, "yucatan": 28631, "default": 12398, "\u201c": 1523, "raises": 13275, "inexpensive": 23766, "elf": 17163, "hussain": 20093, "fulham": 21703, "cardboard": 19747, "##lena": 20844, "genocide": 14052, "huntsville": 28492, "purple": 6379, "magician": 16669, "immigrant": 11560, "baghdad": 13952, "differed": 19541, "##slin": 22908, "\uff0d": 1990, "ah": 6289, "[unused512]": 517, "victory": 3377, "clemson": 25906, "aw": 22091, "##ducted": 29510, "pictured": 15885, "##ndra": 17670, "##\u53e4": 30315, "www": 7479, "##rta": 13320, "\u91cc": 1962, "##loaded": 17468, "otter": 22279, "##urai": 24804, "legislative": 4884, "##lev": 20414, "royalties": 25335, "charred": 29030, "##\u05e1": 29804, "##farlane": 23511, "##rdi": 17080, "minh": 19538, "scarf": 18982, "reed": 7305, "trumpet": 9368, "oakley": 28876, "sept": 17419, "mabel": 19486, "doe": 18629, "##fles": 28331, "sienna": 20210, "uppsala": 25720, "\u8c9d": 1952, "[unused9]": 10, "delightful": 26380, "315": 22904, "##igraphy": 23132, "clarissa": 25260, "premiered": 5885, "cory": 18342, "orbiting": 26472, "]": 1033, "\u3009": 1638, "reddish": 14182, "aura": 15240, "markers": 16387, "cypriot": 18543, "pioneered": 16193, "1708": 27337, "##rwood": 20941, "password": 20786, "bhp": 22245, "##isan": 29196, "sums": 20571, "tiberius": 28411, "home": 2188, "grinning": 11478, "parasites": 23996, "##elles": 22869, "nape": 23634, "##mbo": 13344, "[unused0]": 1, "rios": 25836, "exploding": 20728, "powder": 9898, "[unused253]": 258, "[unused450]": 455, "kramer": 16322, "[unused452]": 457, "entry": 4443, "assassin": 12025, "##ell": 5349, "berkshire": 15570, "swan": 10677, "needles": 17044, "##ber": 5677, "torso": 15190, "disciple": 17849, "clifton": 16271, "1704": 27769, "legislation": 6094, "##q": 4160, "vastly": 24821, "midway": 12213, "wyatt": 12986, "##xious": 25171, "stops": 6762, "humanity": 8438, "loyalty": 9721, "employers": 12433, "fundraising": 15524, "middleton": 17756, "collecting": 9334, "##\u58eb": 30333, "stamford": 22469, "1830s": 20400, "##nist": 26942, "physiological": 19389, "seneca": 21224, "tavi": 24283, "terminals": 17703, "paul": 2703, "\u05e6": 1263, "sweeping": 12720, "##gno": 26745, "provocative": 26422, "wife": 2564, "catholicism": 16138, "ripple": 24644, "towed": 18948, "ensured": 16316, "coloring": 22276, "dali": 29095, "novels": 6002, "##ctum": 27272, "##hy": 10536, "##cks": 10603, "vincent": 6320, "##eers": 22862, "ymca": 26866, "forbade": 27315, "\u05da": 1251, "[unused135]": 140, "politely": 16954, "scholarships": 15691, "equals": 19635, "airfield": 9087, "groove": 14100, "nothin": 24218, "port": 3417, "fein": 27132, "##nified": 25201, "##pipe": 24548, "russians": 12513, "taped": 19374, "boycott": 17757, "arrays": 27448, "knives": 13227, "31st": 17089, "##sau": 23823, "punch": 8595, "figuring": 23218, "chick": 14556, "pumping": 14107, "bandits": 19088, "cocked": 13179, "swirled": 19171, "yun": 22854, "clones": 24418, "committee": 2837, "ligand": 27854, "##efined": 28344, "serving": 3529, "lacey": 16355, "eurasian": 23399, "gambia": 26728, "distinguishes": 27343, "slant": 27474, "norms": 17606, "##dan": 7847, "[unused659]": 664, "##un": 4609, "\u0915": 1315, "##zos": 28370, "tackle": 11147, "ambassador": 6059, "\u0574": 1229, "##kei": 29501, "public": 2270, "260": 13539, "##lley": 25105, "resurrection": 15218, "slip": 7540, "##eni": 18595, "buick": 28865, "333": 21211, "##nant": 16885, "##lium": 21816, "suns": 19352, "framework": 7705, "amelia": 11556, "illusions": 24883, "sleeves": 15114, "weakly": 17541, "coconut": 16027, "[unused232]": 237, "woo": 15854, "ambiguous": 20080, "##\u014b": 29673, "brethren": 17937, "bafta": 22284, "historia": 19891, "olivia": 7710, "[unused6]": 7, "\u0268": 1118, "flies": 10029, "pasture": 20787, "grimsby": 24470, "[unused233]": 238, "##bria": 21556, "[unused752]": 757, "maddox": 22730, "gesellschaft": 27482, "busch": 15840, "aground": 29406, "ho": 7570, "1978": 3301, "pun": 26136, "[unused132]": 137, "peeling": 28241, "##etano": 28752, "##ignment": 24838, "6th": 5351, "venerable": 24541, "whisky": 21265, "\u4e95": 1754, "bore": 8501, "decreases": 17913, "##use": 8557, "multiplied": 28608, "dealing": 7149, "river": 2314, "accession": 16993, "[unused281]": 286, "commemorated": 19131, "##eg": 13910, "sect": 17831, "tulane": 27437, "review": 3319, "1736": 28192, "hedge": 17834, "compound": 7328, "##lang": 25023, "##ila": 11733, "synonymous": 22594, "enterprise": 6960, "guangdong": 21287, "ideological": 17859, "\u967d": 1973, "fangs": 11738, "offenses": 25173, "secretaries": 23660, "sidney": 11430, "pistol": 8779, "vie": 20098, "faded": 8105, "mentioning": 18625, "digitally": 18397, "2004": 2432, "##gler": 17420, "contributes": 16605, "adoptive": 24787, "[unused285]": 290, "surf": 14175, "[unused644]": 649, "jena": 27510, "yanking": 25716, "gram": 13250, "ville": 20184, "painful": 9145, "reassigned": 18026, "[unused59]": 60, "scrap": 15121, "semiconductor": 20681, "##tha": 8322, "stephan": 15963, "##overs": 24302, "holiday": 6209, "infused": 29592, "##ogan": 21131, "millionaire": 19965, "[unused367]": 372, "camping": 13215, "version": 2544, "decca": 21079, "terre": 25170, "hasty": 27151, "stammered": 28532, "reynolds": 9579, "passageway": 27336, "afford": 8984, "alignment": 12139, "provided": 3024, "gloves": 11875, "cellular": 12562, "93": 6109, "##hon": 8747, "##ath": 8988, "devon": 7614, "alternatively": 14084, "197": 19975, "inhibitor": 24054, "pink": 5061, "topological": 24309, "##ates": 8520, "incline": 27461, "##pie": 14756, "recent": 3522, "selector": 27000, "##ku": 5283, "##ki": 3211, "bullshit": 14636, "[unused39]": 40, "[unused20]": 21, "certainly": 5121, "115": 10630, "maids": 29229, "##eno": 16515, "captivity": 16187, "behaved": 26979, "teachers": 5089, "rep": 16360, "billing": 25640, "haunting": 20161, "and": 1998, "engraving": 23501, "##fy": 12031, "orlando": 10108, "271": 25103, "porcelain": 17767, "##uka": 15750, "instincts": 16160, "northumberland": 16205, "##tel": 9834, "cautiously": 15151, "reunited": 11653, "shows": 3065, "##dur": 24979, "tiger": 6816, "sven": 21313, "cupping": 25076, "reacher": 22970, "sentence": 6251, "sunderland": 15518, "##elo": 18349, "cavalier": 28778, "[unused260]": 265, "furiously": 20322, "tabitha": 21581, "add": 5587, "volvo": 21074, "##sor": 21748, "chelsea": 9295, "babu": 20948, "swelled": 21851, "##\u5317": 30307, "prefect": 19402, "[unused913]": 918, "##erus": 21608, "[unused905]": 910, "applications": 5097, "difficulties": 8190, "1904": 5692, "coil": 17085, "##gues": 22967, "knesset": 27899, "printer": 15041, "##\u21d2": 30119, "final": 2345, "improper": 24156, "unreleased": 13270, "pact": 14790, "##\u2098": 30096, "manner": 5450, "chattanooga": 23351, "##storm": 19718, "tatar": 29241, "choir": 6596, "lew": 24992, "lately": 9906, "trophies": 22236, "vaults": 28658, "measurements": 11702, "earnings": 16565, "miners": 11257, "##\u05e3": 29806, "unbelievable": 23653, "##ssi": 18719, "##scribe": 29234, "\u4eac": 1755, "hooks": 18008, "menacing": 24060, "descendants": 8481, "1891": 6607, "kildare": 24275, "##\u65b9": 30389, "howie": 28211, "##bians": 26376, "\u090f": 1314, "##pio": 22071, "commanders": 11437, "intercept": 19115, "##swell": 19228, "chairs": 8397, "gala": 16122, "##60": 16086, "crush": 10188, "dice": 18740, "##trust": 24669, "panzer": 16946, "maureen": 19167, "manuscripts": 10485, "##gill": 19791, "happy": 3407, "tape": 6823, "axle": 17290, "class": 2465, "asylum": 11386, "humanities": 11406, "acceleration": 16264, "blackness": 19573, "movie": 3185, "##\u06cc": 24830, "[unused918]": 923, "aromatic": 25496, "nominal": 15087, "\u306e": 1671, "towing": 28379, "1b": 26314, "pan": 6090, "thirsty": 24907, "##bek": 24597, "\u026a": 1119, "euro": 9944, "1905": 5497, "electro": 16175, "caliph": 22733, "condition": 4650, "ukraine": 5924, "seahawks": 21390, "marcos": 14810, "programmer": 20273, "samba": 29086, "##cht": 10143, "genealogy": 26684, "indication": 12407, "trait": 18275, "jp": 16545, "governors": 11141, "civil": 2942, "walden": 24834, "spelled": 11479, "survive": 5788, "rigid": 11841, "zoology": 22405, "intercity": 20651, "##dee": 26095, "padre": 28612, "##\u043b": 29436, "##aver": 22208, "##\u826f": 30464, "rom": 17083, "grimaced": 19014, "[unused813]": 818, "auspices": 20153, "nationwide": 9053, "##vera": 26061, "##\u21c4": 30117, "unmarried": 17204, "skinner": 17451, "finished": 2736, "talent": 5848, "pure": 5760, "tugging": 17100, "##utable": 23056, "wavelengths": 29263, "nepali": 23418, "inside": 2503, "##mie": 9856, "emerges": 19391, "progression": 14967, "mollusk": 13269, "creed": 16438, "[unused312]": 317, "[unused286]": 291, "maintenance": 6032, "intersect": 29261, "##flict": 29301, "goals": 3289, "immediately": 3202, "hierarchical": 25835, "counterparts": 14562, "perceived": 8690, "appointments": 14651, "##rook": 25399, "popcorn": 24593, "##stones": 29423, "slips": 17433, "paramilitary": 22258, "##quest": 15500, "nero": 19212, "fairbanks": 24502, "swamp": 11963, "residency": 14079, "spectators": 12405, "southend": 26104, "##sil": 27572, "photos": 7760, "##elial": 24587, "affordable": 15184, "apologized": 17806, "revenues": 12594, "unspoken": 25982, "\u00df": 1096, "gangs": 18542, "dangling": 18737, "sato": 20251, "curling": 11599, "havoc": 22156, "##partisan": 26053, "##elman": 23830, "cleansing": 26799, "##7": 2581, "enjoys": 15646, "pony": 15606, "administration": 3447, "industries": 6088, "lingered": 17645, "[unused337]": 342, "pier": 10356, "##roup": 22107, "risen": 13763, "##kha": 15256, "pristine": 27375, "amanda": 8282, "danube": 16212, "antiques": 27763, "vamp": 20279, "umm": 26114, "earl": 4656, "wars": 5233, "growled": 8881, "##una": 9521, "retire": 11036, "altar": 9216, "##hear": 26560, "runner": 5479, "\u65b0": 1862, "demolished": 7002, "rajasthan": 16815, "accreditation": 14893, "\u2ea9": 1632, "##tary": 18219, "classmates": 19846, "released": 2207, "##fall": 13976, "##minate": 19269, "##head": 4974, "strain": 10178, "oral": 8700, "reserved": 9235, "##go": 3995, "\u1172": 1480, "slam": 9555, "norwich": 12634, "##coe": 16288, "concurrency": 24154, "harding": 15456, "peacock": 18931, "[unused45]": 46, "##ided": 14097, "wires": 14666, "voices": 5755, "headed": 3753, "##stems": 29189, "punched": 11696, "##rk": 8024, "otto": 8064, "[unused584]": 589, "1697": 28690, "##post": 19894, "hurricane": 7064, "sink": 7752, "##osition": 19234, "##tile": 15286, "solemn": 19487, "##ulum": 25100, "##\u0f63": 29971, "newcastle": 8142, "trunks": 20509, "rhea": 24775, "calderon": 28129, "##io": 3695, "dismissing": 28913, "inflammatory": 20187, "lane": 4644, "loans": 10940, "newer": 10947, "frontal": 19124, "fairs": 21947, "cassie": 8869, "pipeline": 13117, "##rino": 17815, "degraded": 26131, "##\u653f": 30386, "leningrad": 15930, "blossoms": 28766, "borrowed": 11780, "primaries": 27419, "##ssen": 14416, "##brate": 22008, "symphonies": 29355, "noticeable": 17725, "##\\": 29635, "riot": 11421, "berber": 27514, "##ropriation": 26121, "##logist": 10727, "clearer": 24509, "rule": 3627, "worries": 15508, "[unused321]": 326, "bonn": 19349, "cheekbones": 27181, "##pins": 27915, "erica": 19295, "olympus": 26742, "golf": 5439, "##ote": 12184, "explosives": 14792, "urban": 3923, "collar": 9127, "tickets": 9735, "1777": 16144, "<": 1026, "bloom": 13426, "federal": 2976, "controller": 11486, "zeus": 15208, "petroleum": 11540, "##sible": 19307, "[unused938]": 943, "##aneous": 17191, "##kk": 19658, "befriended": 23386, "med": 19960, "confronted": 12892, "dramas": 16547, "keyboardist": 20173, "generous": 12382, "choking": 18329, "schedule": 6134, "##oke": 11045, "assortment": 26285, "tyrone": 18770, "[unused443]": 448, "firm": 3813, "biomedical": 20906, "door": 2341, "moffat": 28528, "bribes": 29117, "cause": 3426, "##hl": 7317, "\u06af": 1305, "notch": 18624, "##onia": 12488, "##ec": 8586, "font": 15489, "elias": 14579, "[unused764]": 769, "sequences": 10071, "absorb": 16888, "assert": 20865, "ousted": 28368, "marked": 4417, "[unused735]": 740, "interval": 13483, "sleeps": 25126, "lucille": 28016, "juris": 27551, "tipperary": 17333, "##\u9752": 30501, "shimmering": 22349, "amour": 21518, "authorship": 26324, "##ines": 10586, "reproduced": 22296, "gore": 13638, "spinal": 16492, "##bow": 18912, "mandatory": 10915, "frenzy": 21517, "tuberculosis": 15877, "strapped": 18019, "identical": 7235, "mcc": 23680, "defend": 6985, "##ries": 5134, "1995": 2786, "shivered": 13927, "hacker": 23307, "##aday": 28039, "[unused440]": 445, "ida": 16096, "##hearted": 27693, "\u067e": 1302, "flu": 19857, "##\u10db": 29984, "binding": 8031, "emily": 6253, "##zily": 28431, "jake": 5180, "bronze": 4421, "experiencing": 13417, "##cko": 19665, "normal": 3671, "[unused114]": 119, "tea": 5572, "militias": 29271, "norris": 15466, "jung": 11810, "sweeney": 21178, "exemplary": 27792, "erected": 7019, "talmud": 24380, "spider": 6804, "[unused860]": 865, "funding": 4804, "cooking": 8434, "zipper": 22082, "undertaker": 27568, "lasting": 9879, "regime": 6939, "correlated": 23900, "weddings": 20429, "depict": 17120, "##kh": 10023, "wright": 6119, "await": 26751, "fragrance": 24980, "##rt": 5339, "echoed": 10187, "craters": 27561, "[unused588]": 593, "borg": 28709, "shortest": 20047, "##p": 2361, "minded": 13128, "nutrition": 14266, "\u02b2": 1141, "liv": 22135, "accurately": 14125, "bengal": 8191, "decides": 7288, "sykes": 23531, "columns": 7753, "shan": 17137, "ecole": 12431, "184": 19681, "##stead": 25647, "submission": 12339, "[unused869]": 874, "improvised": 19641, "\u30ce": 1717, "refer": 6523, "aqua": 28319, "haifa": 21303, "##\u0438\u044f": 23483, "max": 4098, "destiny": 10461, "emerson": 12628, "##sus": 13203, "acids": 12737, "ley": 25866, "\u6587": 1861, "ha": 5292, "buses": 7793, "bodies": 4230, "triple": 6420, "managed": 3266, "parma": 19177, "narrow": 4867, "amenities": 19870, "decorated": 7429, "renegade": 28463, "##stream": 21422, "jumper": 21097, "form": 2433, "tyson": 19356, "orientation": 10296, "1695": 29140, "xiv": 15939, "merge": 13590, "##ovo": 16059, "chesterfield": 22699, "roadside": 25131, "creates": 9005, "##onga": 26356, "3000": 11910, "sicily": 12071, "strangely": 13939, "makeup": 5789, "suspended": 6731, "ipad": 25249, "cain": 11557, "prop": 17678, "[unused681]": 686, "script": 5896, "##ched": 7690, "hughes": 8099, "akin": 17793, "airlines": 7608, "regent": 11315, "traders": 13066, "trains": 4499, "memorials": 22899, "##phi": 21850, "somebody": 8307, "lennon": 14294, "troy": 9553, "lauren": 10294, "profit": 5618, "distal": 29333, "biceps": 27947, "boarding": 9405, "genetically": 19345, "elijah": 14063, "specifications": 15480, "portsmouth": 10913, "riaa": 22716, "derivatives": 16942, "clements": 28572, "coming": 2746, "mobilization": 25580, "abbot": 11428, "douglass": 27485, "increased": 3445, "[unused615]": 620, "\u0274": 1124, "defined": 4225, "ying": 20879, "1797": 14112, "embarked": 11299, "##ions": 8496, "ngos": 22165, "##sul": 23722, "expensive": 6450, "pontifical": 22362, "chess": 7433, "##rch": 11140, "private": 2797, "scranton": 26123, "##\u5c71": 30357, "garry": 21507, "##\u00a9": 29652, "sofa": 10682, "adored": 28456, "##30": 14142, "barren": 20225, "##yama": 11613, "improves": 24840, "7": 1021, "moves": 5829, "kicker": 22652, "composite": 12490, "goldberg": 18522, "##mine": 11233, "fries": 22201, "overwhelmed": 13394, "irving": 12415, "##puram": 17809, "sheila": 15062, "##\u884c": 30471, "##minster": 24431, "[unused988]": 993, "\u58eb": 1807, "trees": 3628, "solely": 9578, "exposed": 6086, "miami": 5631, "stakeholders": 22859, "\u83ef": 1942, "conceptual": 17158, "outputs": 27852, "wrestled": 20615, "macmillan": 15434, "strengthened": 13949, "kensington": 17775, "450": 10332, "journal": 3485, "rene": 10731, "cannons": 17138, "missionary": 8696, "panties": 12095, "adverse": 15316, "organize": 10939, "##igny": 26978, "18th": 4985, "##paper": 23298, "drown": 19549, "##oys": 27153, "spawn": 25645, "nano": 28991, "continued": 2506, "##hani": 23573, "archdeacon": 21742, "apologies": 25380, "bessie": 29298, "[unused221]": 226, "pregnancy": 10032, "cost": 3465, "##borne": 19288, "cicero": 23080, "##cturing": 19159, "balls": 7395, "claims": 4447, "scent": 6518, "lavish": 22689, "\u091c": 1319, "opaque": 28670, "commitment": 8426, "##ocation": 23909, "sox": 9175, "##\u3001": 30161, "sanchez": 10568, "reduce": 5547, "crabs": 26076, "displayed": 6913, "exceeds": 23651, "massimo": 28080, "winchester": 12841, "##yev": 17240, "naacp": 26155, "younger": 3920, "university": 2118, "twisting": 12814, "resurrected": 23053, "counterpart": 13637, "\u00bf": 1094, "##tan": 5794, "clans": 16411, "suggestion": 10293, "\u0f54": 1430, "gorge": 14980, "squirrels": 29384, "buena": 27493, "\u05d2": 1243, "epsilon": 28038, "hollis": 27477, "[unused849]": 854, "\u1d3a": 1494, "lifetime": 6480, "##kins": 14322, "harmed": 25596, "barrel": 8460, "reconciled": 28348, "##nted": 14706, "crowds": 12783, "receivers": 19278, "seventy": 10920, "akira": 21616, "precinct": 18761, "gunslinger": 29274, "yank": 23178, "reigns": 23481, "somali": 16831, "happened": 3047, "choke": 16769, "psalm": 22728, "kw": 6448, "spitting": 24307, "opener": 16181, "[unused461]": 466, "farmers": 6617, "dare": 8108, "paralympic": 17029, "squirrel": 18197, "tunnel": 5234, "chestnut": 15655, "\u304a": 1650, "twice": 3807, "segregation": 18771, "commonplace": 27550, "television": 2547, "##uk": 6968, "zebra": 29145, "acknowledges": 28049, "##xide": 19491, "##nius": 20447, "##uin": 20023, "extravagant": 27856, "died": 2351, "tam": 17214, "##\u0e21": 29951, "jewish": 3644, "surprised": 4527, "recycling": 17874, "detrimental": 29172, ">": 1028, "truth": 3606, "mg": 11460, "sneaking": 20727, "christian": 3017, "bethlehem": 19360, "extremes": 28800, "reacts": 27325, "commandant": 15254, "[unused814]": 819, "##\u2081": 11871, "conquer": 16152, "cock": 10338, "spectacular": 12656, "period": 2558, "##rley": 12866, "##cture": 14890, "transport": 3665, "tripoli": 21841, "\u4e00": 1740, "eight": 2809, "mecklenburg": 22007, "jett": 22962, "nest": 9089, "imagine": 5674, "plantation": 10065, "##si": 5332, "nadia": 14942, "shutting": 17521, "lashed": 25694, "limousine": 28012, "macedonian": 13037, "[unused925]": 930, "designation": 8259, "weight": 3635, "explode": 15044, "##ruck": 29314, "mai": 14736, "##\u0993": 29888, "pillows": 17860, "##fields": 15155, "fabricated": 24212, "inaccurate": 24949, "c": 1039, "era": 3690, "attacker": 17346, "questioned": 8781, "beamed": 22587, "rihanna": 25439, "##\u540c": 30320, "rate": 3446, "combining": 11566, "vibrant": 17026, "examine": 11628, "##ich": 7033, "gap": 6578, "motown": 22654, "contemporary": 3824, "haggard": 27912, "##isk": 20573, "2": 1016, "acronym": 20137, "##lation": 13490, "helens": 24074, "##wise": 14244, "brennan": 13962, "geometry": 10988, "disk": 9785, "defendant": 13474, "gavin": 9448, "1990s": 4134, "logistical": 28961, "##lard": 20822, "\u98df": 1978, "suggestions": 15690, "javelin": 23426, "frankish": 26165, "metals": 11970, "slang": 21435, "plant": 3269, "##ff": 4246, "##\u0686": 29840, "##jo": 5558, "\u0906": 1312, "p": 1052, "warmer": 16676, "premiere": 6765, "arbitration": 18010, "heartland": 27399, "specialization": 28031, "automatic": 6882, "eruptions": 28448, "augusto": 29085, "sob": 17540, "pots": 18911, "eyebrow": 9522, "##hot": 12326, "buy": 4965, "bearded": 23905, "##\u10dd": 29986, "##\u3002": 30162, "##jali": 28948, "##\u57ce": 30330, "patterned": 25336, "oppression": 20489, "kiev": 12100, "jed": 24401, "1604": 28754, "monk": 8284, "broken": 3714, "sunshine": 9609, "##\u5185": 30299, "elena": 9060, "exotic": 12564, "zane": 6944, "mariano": 22695, "##dicate": 16467, "185": 15376, "cool": 4658, "(": 1006, "surrounding": 4193, "fledged": 26712, "gemini": 21424, "meng": 27955, "reviewers": 15814, "civilians": 9272, "1724": 26423, "stemmed": 27674, "adamant": 29502, "behaviour": 9164, "##pati": 24952, "briggs": 15487, "##\u0294": 29705, "programmed": 16984, "##cola": 26289, "##oteric": 29112, "america": 2637, "visually": 17453, "advisers": 24205, "cove": 11821, "searches": 17193, "howe": 13358, "stride": 18045, "##des": 6155, "aaron": 7158, "##ference": 25523, "##fera": 27709, "##jic": 25008, "\u672c": 1876, "archaeological": 7611, "##acies": 20499, "ultimate": 7209, "jong": 18528, "middletown": 28747, "libretto": 17621, "\u0633": 1282, "boomed": 28908, "party": 2283, "false": 6270, "retaining": 12823, "grossing": 18244, "153": 16710, "chest": 3108, "counter": 4675, "amy": 6864, "dieter": 27976, "##raine": 26456, "rt": 19387, "craven": 21232, "coward": 16592, "appearances": 3922, "dietrich": 22567, "curving": 21439, "##fighter": 20027, "included": 2443, "heard": 2657, "acre": 7456, "understand": 3305, "grandparents": 14472, "etc": 4385, "academic": 3834, "programmes": 8497, "fulfilled": 16829, "lagoon": 15825, "##ivism": 22486, "austria": 5118, "uae": 17641, "pixel": 22138, "timely": 23259, "##rade": 13662, "synod": 15374, "aiming": 13659, "230": 11816, "\u043c": 1191, "##bling": 9709, "##asia": 15396, "space": 2686, "initial": 3988, "##ina": 3981, "hanson": 17179, "##rice": 17599, "##oire": 26250, "fixtures": 17407, "pattern": 5418, "nmi": 22484, "stocked": 24802, "technological": 10660, "sino": 19432, "philanthropist": 15246, "leagues": 8121, "honeymoon": 19227, "plead": 25803, "nasa": 9274, "ballot": 10428, "generator": 13103, "macau": 16878, "vc": 18315, "##\u1105": 29994, "provisions": 8910, "frog": 10729, "##de": 3207, "rendezvous": 20558, "confirmation": 13964, "bundles": 26825, "##\u53f8": 30317, "978": 4891, "weston": 12755, "adding": 5815, "cyclone": 11609, "stockholm": 8947, "lancashire": 9638, "nora": 12306, "[unused369]": 374, "guts": 18453, "swallowing": 18468, "##\u2013": 30051, "rwanda": 17591, "##eding": 17819, "##\u2295": 30139, "##ptive": 24971, "\u8449": 1943, "anime": 8750, "##\u05e5": 29808, "##eptive": 22048, "##nais": 28020, "##ot": 4140, "[unused909]": 914, "most": 2087, "##rn": 6826, "parochial": 28773, "\u2116": 1578, "scoring": 4577, "breath": 3052, "unionist": 17104, "sociologist": 25106, "cater": 23488, "\u05d4": 1245, "##ito": 9956, "##ition": 22753, "fare": 13258, "##lc": 15472, "clinched": 18311, "carter": 5708, "palazzo": 18482, "procedure": 7709, "##yk": 15922, "bt": 18411, "spanning": 13912, "temple": 3379, "##\u30ed": 30261, "##icing": 23553, "collegiate": 9234, "ingredient": 21774, "striking": 8478, "structural": 8332, "lighting": 7497, "pickering": 27078, "checkpoint": 26520, "initiating": 26616, "{": 1063, "collapse": 7859, "casino": 9270, "grim": 11844, "reorganization": 17118, "bush": 5747, "collections": 6407, "repeatedly": 8385, "load": 7170, "intro": 17174, "legitimacy": 22568, "##cl": 20464, "radiation": 8249, "turf": 14585, "lurched": 21977, "dail": 26181, "rents": 28206, "presently": 12825, "cuts": 7659, "questions": 3980, "strengths": 20828, "firefighters": 21767, "mommy": 20565, "monster": 6071, "foe": 22277, "nile": 15179, "protagonists": 21989, "tate": 9902, "##js": 22578, "77": 6255, "opposition": 4559, "##rika": 23778, "straightening": 27508, "saga": 12312, "intense": 6387, "casting": 9179, "discouraged": 22585, "##ops": 11923, "hutton": 20408, "##avi": 18891, "conway": 14783, "\u10d4": 1442, "syed": 19740, "bowls": 15220, "39": 4464, "harmless": 19741, "##fighting": 22158, "teach": 6570, "cmll": 25395, "##\u2083": 11622, "arcade": 10877, "taunting": 29442, "money": 2769, "##zi": 5831, "koch": 15259, "progressive": 6555, "club": 2252, "mason": 6701, "16": 2385, "wikipedia": 16948, "noticeably": 25327, "meade": 26501, "quran": 21288, "orleans": 5979, "commits": 27791, "##gai": 23805, "melbourne": 4940, "copa": 10613, "philippe": 11169, "adjacent": 5516, "plains": 8575, "guineas": 22385, "loki": 24143, "mckenna": 21749, "##hog": 25852, "##xx": 20348, "venue": 6891, "motors": 9693, "##oof": 21511, "proclamation": 16413, "inspire": 18708, "purdue": 19749, "pba": 21563, "currents": 14731, "##ois": 10054, "46th": 27990, "deceased": 10181, "jordanian": 26276, "poetry": 4623, "conditioning": 14372, "##\u6797": 30407, "farrell": 16248, "iqbal": 28111, "armenians": 20337, "stillness": 29435, "##\u771f": 30447, "submitted": 7864, "##powering": 23948, "\u02b3": 1142, "##\u0442": 22919, "patients": 5022, "switzerland": 5288, "implications": 13494, "##rini": 22612, "skeptical": 18386, "academie": 19669, "serpent": 16517, "wilmington": 17025, "[unused236]": 241, "andrea": 8657, "parts": 3033, "barrels": 13826, "upon": 2588, "182": 17691, "##fi": 8873, "encounters": 11340, "cycling": 9670, "gone": 2908, "vocalist": 8032, "hiding": 6318, "affiliates": 18460, "remarked": 10783, "clara": 10254, "capacities": 21157, "##tangle": 23395, "holds": 4324, "predicting": 29458, "dementia": 28767, "laps": 10876, "##rane": 18053, "office": 2436, "slabs": 28761, "dictionary": 9206, "necessity": 13185, "principality": 18018, "yoon": 24863, "defender": 8291, "##rgh": 27172, "scrubbed": 27820, "appalled": 29279, "havilland": 23994, "paige": 17031, "centenary": 17705, "roadway": 18799, "moe": 22078, "exist": 4839, "subjects": 5739, "andres": 15614, "##\u00d7": 26306, "##ndi": 16089, "clarkson": 18648, "leukemia": 25468, "\u09aa": 1367, "##duction": 16256, "angus": 13682, "blah": 27984, "rocked": 14215, "tb": 26419, "derivation": 29280, "literacy": 8433, "vietnamese": 9101, "m3": 29061, "outward": 15436, "alley": 8975, "gift": 5592, "##esh": 9953, "digging": 10443, "mein": 24182, "patrick": 4754, "internationale": 21339, "bengali": 11267, "##ead": 13775, "ambassadors": 20986, "wins": 5222, "##sio": 20763, "charlie": 4918, "##vard": 25911, "##nal": 12032, "##lese": 24527, "guerrilla": 15722, "ambitious": 12479, "odds": 10238, "sue": 9790, "mussolini": 22554, "bus": 3902, "tennessee": 5298, "recipients": 15991, "##aman": 23093, "extremely": 5186, "bucharest": 14261, "##iques": 19516, "nonstop": 25493, "\u5ca1": 1832, "fucking": 8239, "cough": 19340, "tran": 25283, "nodding": 11863, "troubles": 13460, "##suke": 16867, "\u3055": 1656, "composer": 4543, "timing": 10984, "mutter": 23457, "katrina": 16864, "##\u11bc": 30025, "kerry": 11260, "loyola": 21580, "##shore": 19208, "ankle": 10792, "skimmed": 28862, "flashed": 8373, "emerged": 6003, "##kor": 21815, "julian": 6426, "##\u05e8": 29811, "##ett": 6582, "gel": 21500, "trading": 6202, "##wg": 27767, "diplomacy": 17610, "##\u0142a": 22972, "maine": 7081, "##sia": 8464, "##\u0570": 29775, "[unused473]": 478, "phi": 13569, "morales": 17103, "arjun": 26024, "sherry": 22268, "adhere": 25276, "strained": 12250, "toby": 11291, "persuaded": 11766, "##icative": 25184, "\u00a8": 1074, "runoff": 19550, "##\u90ce": 30484, "gem": 17070, "cardinals": 9310, "rat": 9350, "\u00a6": 1072, "francesco": 11400, "etched": 20286, "ashland": 24346, "aeronautics": 27459, "##kt": 25509, "logic": 7961, "suitable": 7218, "##i": 2072, "##tight": 26143, "##baldi": 28807, "freeing": 22198, "postal": 10690, "abused": 16999, "broadband": 19595, "sounded": 5015, "endure": 18094, "upward": 10745, "tricked": 24929, "recommends": 26021, "[unused639]": 644, "hampton": 11615, "candidacy": 17057, "ithaca": 27939, "resultant": 28573, "descriptions": 13271, "19": 2539, "##\u2229": 30131, "[unused822]": 827, "##port": 6442, "##oca": 24755, "campaign": 3049, "market": 3006, "lashes": 16008, "schultz": 22378, "mortality": 13356, "almighty": 26668, "grid": 8370, "bout": 10094, "memoirs": 13251, "clover": 25133, "teddy": 11389, "blaine": 20002, "eddy": 16645, "turkey": 4977, "##itor": 15660, "constitutes": 17367, "##als": 9777, "bombay": 11831, "waitress": 13877, "wrath": 14532, "clown": 15912, "servicing": 26804, "##/": 29626, "##\u0927": 29862, "filmmaker": 12127, "hasan": 17000, "##sett": 21678, "521": 26963, "collisions": 28820, "##fare": 17883, "polar": 11508, "\u057e": 1235, "shin": 12277, "uncommon": 13191, "bundesliga": 14250, "refugees": 8711, "amelie": 25285, "pertaining": 20246, "##\u00bc": 29664, "##olo": 12898, "mayer": 14687, "foolish": 13219, "##iol": 20282, "nrl": 20686, "intruder": 22841, "tournaments": 8504, "displays": 8834, "##42": 20958, "banner": 9484, "seller": 14939, "widen": 21255, "beverage": 19645, "forms": 3596, "smoky": 20629, "irrigation": 12442, "##gel": 12439, "249": 23628, "shareholder": 18668, "##tland": 19270, "universe": 5304, "prone": 13047, "quarters": 7728, "regulators": 25644, "\u306a": 1667, "##nish": 24014, "##logical": 9966, "auditorium": 11448, "spiders": 14160, "##tr": 16344, "##eit": 20175, "staples": 24533, "cbe": 15852, "groaning": 24781, "definitive": 15764, "band": 2316, "lucien": 11732, "##mir": 14503, "particle": 10811, "##ome": 8462, "tucson": 17478, "pre": 3653, "easier": 6082, "pouch": 21445, "qualifier": 10981, "losses": 6409, "127": 13029, "jar": 15723, "zheng": 20985, "notion": 9366, "temper": 12178, "sequencing": 24558, "1692": 28622, "##mise": 28732, "[unused165]": 170, "##lusion": 24117, "yard": 4220, "redhead": 26705, "totaling": 21798, "listings": 26213, "mojo": 28017, "##systems": 29390, "integration": 8346, "dissolution": 12275, "centers": 6401, "coach": 2873, "download": 8816, "tallest": 13747, "margarita": 24570, "nevada": 7756, "accordance": 10388, "appendix": 22524, "bloomfield": 25584, "##ces": 9623, "prisoner": 7267, "expose": 14451, "info": 18558, "quicker": 19059, "lark": 23404, "minnie": 26188, "##vine": 20534, "typing": 22868, "##z": 2480, "determining": 12515, "sharks": 12004, "feat": 8658, "covert": 19813, "##roving": 22046, "fastened": 24009, "##yd": 25688, "##\u5b97": 30347, "mauritius": 18004, "\u110a": 1462, "\u300e": 1643, "product": 4031, "insurrection": 27860, "[unused144]": 149, "delicately": 28814, "heated": 9685, "##\u5ca1": 30358, "honors": 7836, "punk": 7196, "boroughs": 21413, "ghanaian": 27202, "ngc": 27645, "##adt": 18727, "\u099c": 1358, "dragoons": 28069, "modifications": 12719, "revealed": 3936, "salsa": 26509, "once": 2320, "scraped": 20378, "brawl": 23244, "##tler": 25091, "brightly": 14224, "composed": 3605, "supplied": 8127, "shelly": 28360, "##kon": 19648, "##icles": 20921, "##ructured": 26134, "servants": 8858, "##tv": 9189, "rhine": 10950, "mozambique": 16274, "lansing": 22304, "##ssler": 23385, "##year": 29100, "##quette": 29416, "andrey": 29219, "lattice": 17779, "sloan": 19024, "filmfare": 25648, "##\u026c": 29687, "##gative": 26792, "human": 2529, "1804": 13140, "##xia": 14787, "include": 2421, "##shing": 12227, "ever": 2412, "[unused48]": 49, "uphold": 27329, "##icide": 21752, "##chai": 24925, "##\u0127": 29672, "doesn": 2987, "problems": 3471, "classic": 4438, "lighter": 9442, "spear": 12341, "glazed": 19724, "1823": 12522, "vinegar": 29387, "drought": 14734, "ld": 25510, "##uchi": 15217, "strikeouts": 20813, "initiation": 17890, "pivotal": 20369, "##y": 2100, "##psy": 18075, "clade": 21697, "gradient": 17978, "2500": 25108, "dukes": 16606, "cable": 5830, "##oku": 21940, "troubled": 11587, "##ted": 3064, "2007": 2289, "knows": 4282, "##lay": 8485, "##mps": 25370, "rags": 26346, "ron": 6902, "indians": 6505, "dani": 19522, "momma": 23603, "##son": 3385, "maynard": 22130, "ibm": 9980, "ein": 16417, "outsiders": 22361, "charity": 5952, "goodwill": 22875, "[unused811]": 816, "##arable": 25236, "engined": 21235, "gifford": 29360, "byzantine": 8734, "pinch": 18392, "preserves": 18536, "thy": 15177, "postdoctoral": 29272, "switching": 11991, "knoxville": 20021, "ted": 6945, "nightmare": 10103, "insides": 19008, "ceo": 5766, "##gating": 16961, "tap": 11112, "\u2f65": 1634, "coloration": 28757, "320": 13710, "neal": 11030, "contractors": 16728, "silesia": 21872, "contribute": 9002, "ranges": 8483, "multi": 4800, "##tet": 22513, "##vino": 26531, "pixels": 27725, "hungry": 7501, "##oran": 18842, "##spar": 27694, "crouched": 14275, "breakers": 24742, "##\u2095": 30093, "[unused299]": 304, "control": 2491, "supreme": 4259, "generated": 7013, "intimate": 10305, "mandir": 22700, "##lizer": 28863, "##\u1d56": 30040, "happen": 4148, "finest": 10418, "slap": 14308, "triumph": 10911, "novo": 24576, "[unused780]": 785, "clipped": 20144, "mission": 3260, "treaty": 5036, "tis": 22320, "narayan": 24331, "123": 13138, "clamped": 18597, "virtues": 21560, "association": 2523, "portal": 9445, "requests": 11186, "##ip": 11514, "##ora": 6525, "liquor": 13207, "frightened": 10363, "##ta": 2696, "adjusted": 10426, "cheers": 21250, "pilots": 8221, "neighboring": 8581, "deciding": 10561, "cosmetic": 25536, "##drome": 29171, "stationed": 8895, "[unused743]": 748, "guarded": 13802, "scholar": 6288, "hovered": 18190, "##ating": 5844, "afterlife": 25115, "jerseys": 28772, "shiva": 12535, "[unused359]": 364, "organized": 4114, "##iest": 10458, "minors": 18464, "##\u0252": 29678, "ultra": 11087, "\u0e15": 1411, "whirled": 17097, "gilbert": 7664, "adept": 26398, "[unused825]": 830, "kan": 22827, "fc": 4429, "\u00a3": 1069, "husband": 3129, "fordham": 27302, "##zle": 29247, "ensures": 21312, "comb": 22863, "game": 2208, "+": 1009, "playstation": 9160, "others": 2500, "\u5730": 1802, "examples": 4973, "##iano": 15668, "##hh": 23644, "potsdam": 26554, "202": 16798, "##stad": 16917, "awake": 8300, "generic": 12391, "modify": 19933, "##fm": 16715, "##tling": 15073, "##thed": 23816, "proof": 6947, "registered": 5068, "nicknamed": 9919, "authorities": 4614, "willy": 16172, "increases": 7457, "cast": 3459, "confluence": 13693, "hampshire": 7035, "discoveries": 15636, "bouts": 23666, "##chon": 24561, "unlocked": 14058, "chuckles": 26088, "dispute": 7593, "\u0632": 1281, "honest": 7481, "botanical": 13194, "censorship": 15657, "horace": 12757, "liberty": 7044, "unclear": 10599, "montenegro": 13018, "cooperative": 10791, "langdon": 15232, "ceded": 19705, "opens": 7480, "##see": 19763, "perished": 23181, "memories": 5758, "trustees": 9360, "chinese": 2822, "corruption": 7897, "ion": 10163, "enables": 12939, "montana": 8124, "[unused908]": 913, "ji": 10147, "curls": 14484, "##cheng": 21043, "##pled": 21132, "frown": 11330, "calhoun": 22982, "2021": 25682, "##\u2087": 30083, "##\u4f50": 30290, "concluded": 5531, "##ieving": 25587, "magnificent": 12047, "veronica": 13133, "nintendo": 10022, "##lou": 23743, "raoul": 22063, "antennae": 28624, "sensations": 21378, "mclean": 17602, "mons": 29408, "##our": 8162, "quickly": 2855, "1786": 17436, "##\u10d0": 29974, "distressed": 24305, "##\u2030": 30065, "accelerating": 29494, "distant": 6802, "longitude": 20413, "raise": 5333, "adorned": 19189, "islanders": 16422, "236": 23593, "vertigo": 28246, "vaccine": 17404, "capitalist": 19640, "\u30ef": 1736, "effectiveness": 12353, "stunts": 28465, "west": 2225, "##tive": 6024, "directions": 7826, "cyrus": 16123, "achievement": 6344, "instituted": 14948, "alec": 9752, "blinded": 20641, "sami": 17015, "viewers": 7193, "abd": 19935, "gaza": 14474, "por": 18499, "\u2076": 1540, "waited": 4741, "[unused739]": 744, "hug": 8549, "1757": 22621, "[unused955]": 960, "cottages": 18918, "##notes": 20564, "[unused932]": 937, "patsy": 25382, "cluster": 9324, "preschool": 23655, "jason": 4463, "##oda": 13390, "ward": 4829, "aside": 4998, "rejecting": 21936, "rally": 8320, "wingspan": 9635, "reverted": 16407, "thirteenth": 14725, "##wad": 26016, "bb": 22861, "cairo": 11096, "length": 3091, "rained": 28270, "reach": 3362, "##\u203f": 30069, "troopers": 26246, "2a": 23409, "##igen": 29206, "meters": 5563, "[unused637]": 642, "tastes": 16958, "charters": 23010, "mapping": 12375, "rossi": 18451, "restore": 9239, "\u00a33": 28182, "[unused972]": 977, "\u771f": 1921, "wakes": 17507, "imperfect": 29238, "accounts": 6115, "competing": 6637, "illustrates": 24899, "##4": 2549, "##gul": 24848, "dempsey": 28165, "crown": 4410, "medalist": 12968, "emphasis": 7902, "##\u099f": 29895, "inverse": 19262, "maharashtra": 12434, "debut": 2834, "##nc": 12273, "hu": 15876, "[unused206]": 211, "boo": 22017, "creator": 8543, "tightly": 7371, "##ru": 6820, "dustin": 24337, "chrome": 18546, "##omy": 16940, "##dler": 21222, "reluctant": 11542, "##sal": 12002, "majesty": 9995, "sweetly": 22557, "conservative": 4603, "robots": 13507, "artists": 3324, "disgust": 12721, "109": 11518, "metal": 3384, "profession": 9518, "reward": 10377, "violinist": 16609, "ohio": 4058, "gallo": 25624, "engaging": 11973, "##j": 3501, "serbs": 16757, "##\u03c9": 29739, "##\u03c0": 29731, "reviewer": 12027, "##opus": 24676, "[unused509]": 514, "leland": 27134, "##aya": 12186, "demos": 18267, "##\u116a": 30012, "clip": 12528, "##relli": 22948, "spur": 12996, "manipulating": 26242, "##\u0909": 29849, "airlift": 20019, "imperative": 23934, "##cute": 26869, "bel": 19337, "##emon": 26941, "feelings": 5346, "##ol": 4747, "manson": 21440, "##ever": 22507, "molecular": 8382, "shaw": 8233, "musa": 23154, "##tino": 25690, "center": 2415, "landscapes": 12793, "suppliers": 20141, "influential": 6383, "ozone": 26443, "plateau": 9814, "own": 2219, "stewart": 5954, "eugene": 8207, "ambiguity": 27637, "michelangelo": 27701, "role": 2535, "skull": 7412, "frequent": 6976, "texans": 23246, "foundations": 10100, "rake": 26008, "##tf": 24475, "##itte": 27100, "##tra": 6494, "governmental": 10605, "processing": 6364, "bond": 5416, "tails": 17448, "politically": 10317, "closer": 3553, "\u10d1": 1439, "##town": 4665, "wolfgang": 13865, "\u1174": 1482, "josie": 15293, "greyish": 26916, "absorbed": 9063, "placement": 11073, "daytona": 18226, "groups": 2967, "steven": 7112, "admissions": 20247, "onward": 15834, "boasts": 21979, "both": 2119, "legislature": 6372, "responded": 5838, "anatomical": 28141, "eduard": 20424, "embassy": 8408, "[unused910]": 915, "##wai": 21547, "aquatics": 26649, "distinct": 5664, "stare": 6237, "##field": 3790, "baird": 20866, "##gol": 24141, "forces": 2749, "deco": 21933, "deviation": 24353, "skirmish": 27264, "##=": 29630, "##zzi": 13793, "[unused687]": 692, "sweatshirt": 28095, "hana": 26048, "enemy": 4099, "georgina": 27358, "##tyle": 27983, "\u30e0": 1725, "birth": 4182, "shocked": 7135, "227": 21489, "\u028c": 1134, "[unused899]": 904, "##em": 6633, "slots": 19832, "bust": 13950, "struggle": 5998, "##phones": 19093, "persuade": 13984, "inventory": 12612, "diamond": 6323, "[unused698]": 703, "theories": 8106, "especially": 2926, "##37": 24434, "bain": 28477, "estimated": 4358, "ashe": 13402, "imp": 17727, "antennas": 26315, "horst": 28565, "##u": 2226, "##ping": 4691, "menu": 12183, "cora": 17195, "##oven": 25592, "marching": 10998, "##lands": 8653, "##\u09bf": 29915, "[unused748]": 753, "mainline": 20575, "investigator": 14064, "##\u00a3": 29646, "kenneth": 8856, "vida": 19830, "twenty20": 22240, "##zog": 28505, "amid": 13463, "forgive": 9641, "chill": 10720, "indicate": 5769, "\u0e1e": 1414, "yellow": 3756, "mainstream": 7731, "truths": 23019, "##\u30e1": 30252, "situ": 26179, "districts": 4733, "certificate": 8196, "liz": 9056, "look": 2298, "\u05db": 1252, "bingo": 27137, "same": 2168, "\u0430": 1180, "[unused707]": 712, "##esis": 19009, "##fan": 15143, "##cer": 17119, "guitar": 2858, "395": 24673, "grain": 8982, "##osh": 17369, "neil": 6606, "victor": 5125, "eighteenth": 12965, "[unused126]": 131, "robe": 11111, "promote": 5326, "provost": 18523, "basis": 3978, "confiscated": 17182, "cl": 18856, "allergic": 27395, "disguised": 17330, "claudius": 25017, "levine": 17780, "musik": 28076, "northernmost": 22037, "haitian": 21404, "##\u0642": 29834, "typical": 5171, "rabbi": 7907, "[MASK]": 103, "successively": 24288, "anticipated": 11436, "controversy": 6704, "antigua": 26023, "148": 16459, "999": 25897, "[unused699]": 704, "bmw": 13154, "ama": 25933, "324": 27234, "21st": 7398, "sanjay": 29590, "##ncia": 22750, "heir": 8215, "\u09b9": 1377, "set": 2275, "buddhist": 7992, "dams": 17278, "sacrifices": 18502, "designers": 11216, "waterfall": 14297, "contamination": 18701, "turkish": 5037, "posture": 16819, "simpson": 9304, "kurdish": 15553, "mobile": 4684, "diminished": 15911, "verbs": 16025, "amplitude": 22261, "tq": 28816, "revive": 17995, "palatine": 22202, "ripley": 25231, "initials": 20381, "sheets": 8697, "##sville": 9337, "melissa": 9606, "lambda": 23375, "och": 28166, "laval": 26205, "pluto": 26930, "[unused340]": 345, "survivor": 12084, "[unused661]": 666, "##aire": 14737, "139": 16621, "##met": 11368, "agustin": 26889, "bon": 14753, "##kshi": 27488, "[unused664]": 669, "uniformly": 27423, "holland": 7935, "500": 3156, "whatsoever": 18971, "hostess": 22566, "prima": 21111, "janata": 20308, "defiant": 27836, "signaled": 22319, "decrease": 9885, "##fying": 14116, "scans": 27404, "fisherman": 19949, "bournemouth": 22882, "##\u5dde": 30362, "breed": 8843, "##ophone": 25232, "grover": 25242, "289": 27054, "##46": 21472, "easton": 21636, "##opsis": 22599, "\u06a9": 1304, "##ss": 4757, "##bay": 15907, "operators": 9224, "##\u00dfe": 17499, "[unused603]": 608, "mel": 11463, "blond": 8855, "hannibal": 24181, "tornado": 11352, "fernandez": 12023, "##sso": 24137, "galveston": 26630, "[unused344]": 349, "42nd": 21373, "##ce": 3401, "\u2192": 1585, "##eral": 21673, "donetsk": 29151, "hangar": 18284, "jumping": 8660, "facades": 28708, "[unused989]": 994, "motivated": 12774, "glacial": 17381, "[unused690]": 695, "512": 24406, "\u304f": 1653, "cans": 18484, "packers": 15285, "ample": 20851, "apparent": 6835, "##ctic": 13306, "senator": 5205, "crop": 10416, "labyrinth": 24239, "literary": 4706, "navy": 3212, "##ddy": 14968, "literal": 18204, "pet": 9004, "##34": 22022, "herbal": 27849, "armor": 8177, "cayman": 26164, "detect": 11487, "\u66f8": 1871, "##gang": 24930, "##ols": 27896, "rendered": 10155, "\u98a8": 1977, "originated": 7940, "cryptic": 26483, "corp": 13058, "faithful": 11633, "[unused30]": 31, "fucked": 21746, "enslaved": 22216, "around": 2105, "tired": 5458, "##ui": 10179, "delayed": 8394, "compact": 9233, "immediate": 6234, "lush": 16299, "cubic": 11919, "##uan": 13860, "accompanied": 5642, "1809": 12861, "ambitions": 19509, "fluorescent": 22184, "##in": 2378, "##apa": 22068, "myers": 13854, "##\u0930": 29869, "publishers": 8544, "##sters": 15608, "landfill": 28382, "[unused328]": 333, "##nated": 23854, "plagued": 17808, "communicate": 10639, "\u20b9": 1576, "ottawa": 8166, "closet": 9346, "paid": 3825, "[unused493]": 498, "mater": 16289, "##\u0e27": 29955, "##ers": 2545, "jade": 12323, "hamlet": 8429, "successors": 18530, "parting": 20254, "holm": 28925, "dunn": 14145, "motorola": 29583, "sweat": 7518, "winfield": 24739, "palace": 4186, "ter": 28774, "organs": 11595, "##opa": 29477, "##\u30a8": 30224, "\u4e0d": 1744, "guidance": 8606, "suffix": 16809, "faso": 22773, "[unused680]": 685, "poznan": 18320, "\u3080": 1679, "salem": 10389, "192": 17613, "aden": 16298, "blinds": 28279, "nicely": 19957, "bernstein": 18862, "destructive": 15615, "\u30ab": 1700, "belonged": 6272, "licking": 17033, "xiang": 27735, "kid": 4845, "##nate": 12556, "[unused665]": 670, "declan": 16494, "mohammad": 12050, "overrun": 24672, "##rchy": 29389, "hairs": 13606, "pathways": 16910, "horne": 24084, "knockout": 11369, "aix": 28443, "nielsen": 13188, "##dh": 16425, "edward": 3487, "soho": 23771, "##od": 7716, "southeast": 4643, "##isa": 14268, "enrichment": 27226, "heroin": 19690, "level": 2504, "##promising": 25013, "troop": 10123, "respected": 9768, "##oom": 17650, "##sity": 17759, "kaitlyn": 28584, "mounting": 15986, "mclaren": 18590, "1970s": 3955, "exploitation": 14427, "##\u2193": 30114, "say": 2360, "wrists": 12150, "moines": 23286, "article": 3720, "##ave": 10696, "dialects": 11976, "[unused201]": 206, "aspirations": 22877, "roberto": 10704, "helm": 16254, "##mbs": 29232, "abundance": 14531, "[unused419]": 424, "##ks": 5705, "amidst": 17171, "[unused77]": 78, "oakland": 9182, "hale": 13084, "##dah": 18417, "steamboat": 24897, "rectangular": 10806, "petite": 20146, "##ays": 22916, "sniff": 27907, "##tance": 26897, "protected": 5123, "sound": 2614, "gould": 14913, "barking": 19372, "##oco": 24163, "ct": 14931, "console": 10122, "rolled": 4565, "##camp": 26468, "[unused895]": 900, "whistling": 24350, "spectroscopy": 25458, "invest": 15697, "wince": 29585, "capture": 5425, "baker": 6243, "inched": 25330, "##oria": 11069, "##mere": 13759, "organ": 5812, "advances": 9849, "princely": 22771, "globalization": 24370, "mp3": 23378, "untitled": 24819, "foreigner": 29524, "spend": 5247, "greedy": 20505, "deng": 26957, "basque": 13915, "##\u207a": 12744, "independent": 2981, "soul": 3969, "munro": 20923, "deserve": 10107, "[unused881]": 886, "baked": 17776, "force": 2486, "likened": 28834, "\u4f50": 1764, "businesses": 5661, "reliance": 17975, "##\u0e2d": 29957, "##atable": 27892, "smoked": 20482, "chihuahua": 28480, "tries": 5363, "mcqueen": 29265, "oracle": 14721, "stumbling": 19730, "sarajevo": 18354, "chen": 8802, "##lls": 12718, "ponds": 16879, "conquest": 9187, "##tania": 21013, "rhyme": 20622, "prototype": 8773, "stimulating": 27295, "statements": 8635, "##\u5802": 30331, "##ape": 24065, "softness": 27012, "zhao": 15634, "fireplace": 13788, "pedal": 15749, "moan": 13673, "arabian": 13771, "sudan": 10411, "salon": 11090, "##ssing": 18965, "##working": 21398, "textbook": 16432, "mausoleum": 19049, "negatively": 19762, "superman": 10646, "##rak": 16555, "\u2071": 1537, "sara": 7354, "joan": 7437, "whitney": 9809, "freestyle": 9817, "gerard": 11063, "systems": 3001, "kahn": 19361, "inadvertently": 21089, "##\u30d2": 30245, "269": 25717, "owners": 5608, "murmurs": 22888, "chuckle": 15375, "cardiovascular": 22935, "confirmed": 4484, "##chev": 16179, "unspecified": 25851, "##burn": 8022, "teresa": 12409, "colchester": 20115, "pathway": 12732, "mule": 20568, "##stein": 8602, "expert": 6739, "staging": 15308, "brings": 7545, "establishes": 21009, "[unused51]": 52, "mas": 16137, "##hin": 10606, "wry": 24639, "jazz": 4166, "fuck": 6616, "##combe": 14149, "robb": 26211, "bedrock": 28272, "##\u06be": 29844, "##\u0bb0": 29927, "table": 2795, "##\u4ec1": 30284, "mildly": 19499, "charlton": 17821, "##gonal": 20028, "sobbing": 20040, "190": 11827, "[unused975]": 980, "image": 3746, "1860": 7313, "couple": 3232, "[unused888]": 893, "thrust": 7400, "involves": 7336, "##nation": 9323, "##rdy": 17460, "millie": 19561, "neutron": 20393, "apple": 6207, "##\u05e7": 29810, "chavez": 16860, "250": 5539, "credible": 23411, "airways": 13095, "everton": 18022, "pendleton": 24349, "##cap": 17695, "strive": 29453, "tong": 15740, "##rga": 28921, "wessex": 27886, "vocational": 13099, "##ttes": 14581, "himalayas": 26779, "contrast": 5688, "sai": 18952, "jacqueline": 17551, "\u0437": 1187, "29": 2756, "1638": 27497, "##sma": 26212, "resign": 12897, "##ooping": 29046, "jared": 8334, "coaster": 16817, "parents": 3008, "grande": 9026, "stink": 27136, "britain": 3725, "pretended": 14688, "##chet": 20318, "undertaken": 10607, "quest": 8795, "drummond": 19266, "##xing": 19612, "hezbollah": 25713, "optic": 22816, "alicia": 15935, "norte": 19931, "promotion": 4712, "numerous": 3365, "##pur": 5311, "western": 2530, "nash": 10594, "ads": 14997, "belly": 7579, "raphael": 12551, "goodwin": 19928, "##yt": 22123, "exposure": 7524, "ragged": 14202, "signifies": 27353, "tapping": 15135, "[unused439]": 444, "purported": 27023, "tolkien": 23602, "fairfield": 18986, "khalifa": 27925, "bacteria": 10327, "08": 5511, "lips": 2970, "affiliated": 6989, "##ter": 3334, "painfully": 16267, "innocence": 12660, "evacuation": 13982, "revision": 13921, "centennial": 15483, "violin": 6710, "##ence": 10127, "labels": 10873, "vigor": 24474, "##gman": 25494, "\u2021": 1527, "alderman": 18977, "##hc": 16257, "preacher": 14512, "curled": 8188, "inhabited": 9613, "promotional": 10319, "##wala": 23877, "dash": 11454, "directional": 20396, "sons": 4124, "bodily": 20445, "provides": 3640, "##sty": 21756, "vidhan": 28590, "rates": 6165, "##iff": 13355, "\u694a": 1883, "huang": 15469, "aligned": 13115, "epoch": 25492, "yep": 15624, "##rds": 17811, "fingered": 28842, "##eman": 16704, "squat": 26783, "##dents": 28986, "##mism": 26725, "[unused842]": 847, "1840": 8905, "eleanor": 10508, "fencing": 15962, "zachary": 19474, "dead": 2757, "canton": 8770, "recruiting": 14357, "##zal": 16739, "repulsed": 24571, "connections": 7264, "singing": 4823, "pardon": 14933, "delgado": 26532, "handler": 28213, "##nched": 19282, "candace": 22905, "\u03c2": 1172, "##\u05e9": 29812, "evening": 3944, "peking": 27057, "institutional": 12148, "ely": 20779, "doherty": 23798, "5": 1019, "tonga": 20188, "\u795e": 1925, "1819": 12552, "subsequent": 4745, "\u10da": 1447, "##vsky": 15904, "organizers": 18829, "access": 3229, "allies": 6956, "attire": 20426, "seventeenth": 15425, "dockyard": 24874, "phoebe": 18188, "gregor": 16973, "dune": 21643, "felicia": 27579, "comet": 15699, "cooke": 16546, "enthusiastic": 14727, "cunning": 23626, "##ima": 9581, "brewery": 12161, "marc": 7871, "resorts": 16511, "fills": 17469, "prompted": 9469, "arises": 18653, "hectares": 9076, "chevrolet": 14724, "##izations": 22318, "##\u0282": 29695, "my": 2026, "[unused311]": 316, "information": 2592, "##idia": 29342, "honduras": 14373, "ringing": 13060, "\u6cbb": 1900, "[unused454]": 459, "contractual": 27948, "soldier": 5268, "succumbed": 25642, "##6": 2575, "##iver": 16402, "norwegian": 5046, "decade": 5476, "mirrors": 13536, "##cies": 9243, "considering": 6195, "anthem": 11971, "procession": 14385, "##ico": 11261, "##cier": 19562, "powers": 4204, "repealed": 21492, "##lit": 15909, "priests": 8656, "broadcasts": 8960, "notorious": 12536, "rink": 18416, "valiant": 24329, "##tson": 25656, "ghent": 24202, "[unused168]": 173, "terrifying": 17082, "126": 14010, "louvre": 25110, "receives": 8267, "southbound": 19751, "[unused462]": 467, "sheep": 8351, "duets": 29410, "renaissance": 8028, "wasn": 2347, "cardiff": 10149, "vibe": 21209, "sore": 14699, "##\u05e0": 29803, "then": 2059, "rae": 14786, "gina": 17508, "##yala": 28617, "\u0e17": 1412, "overthrow": 16857, "pamphlets": 24752, "providence": 11293, "##\u00ba": 29662, "filmed": 6361, "##jit": 18902, "vilnius": 20513, "interview": 4357, "##anza": 16076, "##band": 12733, "##stituting": 21532, "marathon": 8589, "batman": 8942, "complexion": 28838, "stable": 6540, "judged": 13224, "blended": 19803, "likeness": 28275, "##kley": 22315, "victoria": 3848, "dependence": 18642, "##rop": 18981, "prolific": 12807, "tongues": 19677, "flyer": 23821, "milne": 24377, "2018": 2760, "keystone": 22271, "instructional": 23219, "flees": 24776, "nonfiction": 25753, "mortal": 9801, "adolescents": 25947, "ordnance": 14445, "1994": 2807, "condemned": 10033, "##oned": 17799, "wearing": 4147, "jupiter": 13035, "##chal": 18598, "receiving": 4909, "##ials": 26340, "163": 17867, "stations": 3703, "antonia": 24272, "ascribed": 28025, "thieves": 15862, "welterweight": 20882, "glendale": 27649, "stepped": 3706, "##like": 10359, "try": 3046, "136": 15407, "putnam": 20230, "observation": 8089, "membrane": 10804, "assertion": 23617, "375": 18034, "cooper": 6201, "##lies": 11983, "haven": 4033, "fences": 21549, "mario": 7986, "\u0935": 1335, "opportunities": 6695, "clicking": 22042, "indian": 2796, "##asurable": 28329, "absolute": 7619, "j": 1046, "days": 2420, "tibetan": 11953, "maui": 28566, "deep": 2784, "\u6a39": 1884, "246": 22376, "ak": 17712, "##a": 2050, "##sts": 12837, "complicated": 8552, "afghanistan": 7041, "elements": 3787, "defect": 21262, "replaced": 2999, "justices": 19867, "though": 2295, "ne": 11265, "preparatory": 13485, "broad": 5041, "terrified": 10215, "susannah": 20471, "bsc": 23533, "##sack": 25607, "##\u09b7": 29911, "gentlemen": 11218, "lewis": 4572, "gardens": 5822, "hidalgo": 24715, "alfa": 22989, "mushrooms": 23827, "regiment": 3483, "mat": 13523, "runs": 3216, "\u0f58": 1432, "belle": 9852, "##apes": 29040, "yanked": 10963, "bulk": 9625, "158": 17696, "[unused648]": 653, "froze": 10619, "registration": 8819, "fight": 2954, "disappointing": 15640, "##leen": 24129, "pathology": 19314, "purposely": 24680, "ecology": 13517, "witches": 12566, "amplified": 26986, "400": 4278, "dealt": 9411, "advisory": 7319, "nas": 17235, "greensboro": 27905, "traveling": 7118, "##vd": 16872, "outskirts": 12730, "ui": 21318, "lieu": 22470, "blooded": 26064, "vitamin": 17663, "varieties": 9903, "captive": 12481, "confused": 5457, "blu": 14154, "##eson": 21421, "anzac": 29224, "hubert": 15346, "catches": 11269, "glory": 8294, "[unused766]": 771, "participates": 17257, "winery": 23910, "##king": 6834, "##gram": 13113, "workplace": 16165, "spines": 20352, "##nig": 25518, "##tsk": 29064, "##\u2044": 30070, "curran": 19649, "orb": 19607, "inaccessible": 29104, "horizontal": 9876, "1775": 14276, "creole": 21414, "\u2086": 1553, "whispered": 3990, "collingwood": 20044, "pistons": 24399, "##hoff": 17896, "castes": 26254, "disappeared": 5419, "exits": 16639, "highlanders": 22672, "eli": 12005, "##tter": 12079, "utilizes": 21852, "gestapo": 26446, "affectionately": 28734, "penitentiary": 29569, "##rica": 14735, "[unused611]": 616, "foam": 17952, "##pala": 19636, "coughing": 21454, "carpathian": 26349, "summary": 12654, "\u516c": 1772, "##burg": 4645, "1856": 8708, "supplemental": 27024, "mornings": 16956, "ross": 5811, "draft": 4433, "##rda": 13639, "wrinkled": 15968, "##\u1d3a": 30030, "\u307f": 1678, "composers": 9929, "venetian": 15510, "##making": 12614, "##lers": 12910, "q": 1053, "societe": 18341, "cursed": 10678, "interrogation": 16871, "lordship": 20698, "realising": 27504, "[unused15]": 16, "##bau": 27773, "[unused360]": 365, "postponed": 14475, "warriors": 6424, "settings": 10906, "favour": 7927, "pulses": 23894, "ballroom": 14307, "aggressively": 24663, "visions": 12018, "socially": 14286, "pip": 28315, "yemen": 13968, "##tute": 24518, "bien": 29316, "motivation": 14354, "mesh": 20437, "rings": 7635, "disappear": 10436, "proctor": 28770, "judah": 23022, "sydney": 3994, "designate": 24414, "outspoken": 22430, "symphony": 6189, "sen": 12411, "tank": 4951, "listed": 3205, "recounted": 22906, "climbing": 8218, "##tious": 20771, "##be": 4783, "leaving": 2975, "##pies": 13046, "remnants": 11270, "correctly": 11178, "##rva": 19146, "ninja": 14104, "scoop": 23348, "cap": 6178, "dinosaur": 15799, "insert": 19274, "gaines": 28645, "agrarian": 23226, "##51": 22203, "eminent": 14953, "##\u83ef": 30468, "ref": 25416, "\u09c0": 1380, "detective": 6317, "##uis": 27020, "ada": 15262, "1100": 22096, "spheres": 19885, "yesterday": 7483, "creatures": 7329, "traits": 12955, "##iating": 15370, "jurist": 22757, "##star": 14117, "saskatchewan": 10068, "block": 3796, "ventured": 20510, "leg": 4190, "boris": 11235, "##ades": 18673, "##iro": 9711, "murders": 9916, "\u11bc": 1489, "leafs": 21349, "conditioned": 22442, "subterranean": 28811, "handwriting": 24149, "aarhus": 29173, "indigenous": 6284, "##nel": 11877, "cutler": 24975, "werewolf": 12797, "price": 3976, "\u0bb0": 1391, "periodically": 18043, "##ion": 3258, "makers": 11153, "ga": 11721, "meek": 28997, "[unused97]": 98, "platt": 28005, "##idge": 13623, "modest": 10754, "internacional": 27607, "deliver": 8116, "skiing": 12701, "interceptor": 24727, "conducted": 4146, "seeds": 8079, "trucks": 9322, "tony": 4116, "gripped": 9672, "incorporate": 13265, "rani": 21617, "##dome": 26173, "##cb": 27421, "[unused189]": 194, "smith": 3044, "##\u05dd": 29800, "##\u30d5": 30246, "leeds": 7873, "lange": 21395, "und": 6151, "1776": 13963, "##bus": 8286, "mostly": 3262, "bite": 6805, "##kovich": 28195, "##planes": 26634, "him": 2032, "elder": 6422, "##\u0643": 29835, "1890": 6193, "declined": 6430, "\u540d": 1795, "##ra\u00dfe": 27807, "22": 2570, "##sit": 28032, "screwing": 29082, "##\u6d77": 30428, "cebu": 23312, "cycle": 5402, "axial": 26819, "1805": 13126, "contributions": 5857, "syrup": 23353, "alexa": 24969, "regrets": 23161, "##version": 27774, "panted": 28149, "##twined": 21077, "sleek": 21185, "\u3053": 1655, "rivalry": 10685, "championed": 28683, "success": 3112, "##kawa": 13069, "whipping": 23016, "##unes": 26639, "motto": 12652, "struggled": 6915, "approaching": 8455, "1925": 4849, "louise": 8227, "##ways": 14035, "ginger": 14580, "reclamation": 27389, "suite": 7621, "latter": 3732, "spartak": 28560, "buddies": 24115, "##olin": 18861, "344": 29386, "mystery": 6547, "##ifer": 23780, "recognizing": 14622, "attended": 3230, "##rso": 25301, "drivers": 6853, "academia": 16926, "chorale": 26561, "\u2020": 1526, "##waite": 29601, "canadiens": 21247, "slogan": 14558, "[unused2]": 3, "##iv": 12848, "##iated": 15070, "##ti": 3775, "alleviate": 24251, "##tsa": 27110, "##ulator": 20350, "##itors": 27287, "super": 3565, "##hs": 7898, "shriek": 24795, "##hima": 16369, "iris": 11173, "thigh": 10120, "republished": 24476, "deportivo": 23696, "cloud": 6112, "##bet": 20915, "\u09ae": 1370, "dyer": 23494, "reversed": 11674, "literature": 3906, "laboratories": 12030, "rite": 14034, "cesar": 14923, "crafted": 19275, "highlighted": 11548, "primera": 14837, "##chaft": 29043, "mister": 12525, "nico": 19332, "##ll": 3363, "yer": 20416, "toxin": 29090, "having": 2383, "archival": 22796, "dublin": 5772, "##wife": 19993, "accord": 15802, "guilty": 5905, "noon": 11501, "saint": 3002, "randall": 12813, "##ci": 6895, "recruitment": 15680, "cuthbert": 24583, "terri": 26568, "weakening": 22031, "film": 2143, "ordeal": 23304, "cares": 14977, "hammersmith": 28420, "comeback": 12845, "galaxy": 9088, "raid": 8118, "##ther": 12399, "creature": 6492, "mccormick": 23213, "wealthiest": 27809, "##zyn": 23749, "measurement": 10903, "riding": 5559, "releasing": 8287, "eagles": 8125, "hostility": 18258, "depiction": 15921, "carr": 12385, "161": 17365, "mated": 28795, "dock": 8946, "derek": 7256, "honored": 8686, "[unused618]": 623, "filipino": 10275, "shah": 7890, "##iaceae": 23357, "crowe": 25657, "##ection": 18491, "jeopardy": 26604, "chaired": 12282, "##eki": 26576, "clarinet": 12089, "##water": 5880, "##ended": 21945, "##ani": 7088, "##gra": 17643, "serbia": 7238, "morocco": 9835, "talon": 19048, "[unused489]": 494, "steiner": 21264, "soap": 7815, "##\u8a01": 30475, "dutch": 3803, "##\u30af": 30228, "[unused992]": 997, "##\u0916": 29852, "obesity": 24552, "turned": 2357, "181": 18596, "sacrificed": 20268, "talk": 2831, "quarter": 4284, "chickens": 21868, "rearview": 28726, "allegations": 9989, "##hari": 18428, "spell": 6297, "1722": 26689, "storey": 11676, "fours": 23817, "rapid": 5915, "loaf": 27048, "##mma": 14760, "spirituality": 21244, "[unused289]": 294, "commodity": 19502, "oversized": 21698, "##tial": 20925, "yield": 10750, "michigan": 4174, "bloody": 6703, "1781": 16788, "v8": 15754, "sikh": 17246, "wizards": 16657, "##45": 19961, "355": 26271, "oskar": 28626, "crash": 5823, "beatles": 11555, "truck": 4744, "employer": 11194, "barnett": 20073, "242": 22431, "nylon": 27201, "1540": 27536, "\u2663": 1624, "##cho": 9905, "dictatorship": 18944, "##rou": 22494, "handcuffs": 28338, "\u674e": 1877, "gather": 8587, "davidson": 12017, "geared": 23636, "clark": 5215, "80s": 16002, "taft": 19911, "term": 2744, "emigration": 20387, "\u30d5": 1720, "bombed": 18897, "jr": 3781, "[unused678]": 683, "quezon": 26564, "installment": 18932, "276": 25113, "armagh": 24678, "1200": 14840, "comforting": 16334, "##hend": 22342, "##\u3068": 30192, "icc": 16461, "next": 2279, "##nami": 28987, "looting": 29367, "clouded": 26761, "##\u00f8": 16415, "severed": 16574, "glared": 9400, "coasts": 20266, "##americana": 27026, "adjusting": 19158, "mal": 15451, "bounced": 13605, "emails": 22028, "##\u4eee": 30287, "lesions": 22520, "[unused494]": 499, "raf": 7148, "##lby": 14510, "1st": 3083, "ariel": 16126, "bloomington": 26372, "totaled": 23596, "dirty": 6530, "terrorist": 9452, "erection": 13760, "insignificant": 27018, "feasibility": 24010, "##\u2010": 30048, "herr": 23506, "grinned": 6973, "##edd": 22367, "jurisdictions": 17370, "towel": 10257, "tugged": 10621, "planners": 27155, "mao": 15158, "solids": 26778, "pulls": 8005, "bracing": 25919, "##polis": 17699, "##ored": 19574, "mineral": 9754, "##ulously": 21227, "[unused826]": 831, "inspirational": 28676, "\u2c7c": 1631, "blunt": 14969, "##train": 23654, "eager": 9461, "distract": 15886, "##ivity": 7730, "thinks": 6732, "shores": 13312, "susceptible": 18002, "simulations": 24710, "primate": 25662, "1560": 29185, "shifters": 21537, "nonprofit": 14495, "##90": 21057, "patch": 8983, "##fk": 24316, "calcium": 13853, "dusty": 12727, "##\u5c1a": 30356, "series": 2186, "##vac": 24887, "##\u00b7": 29661, "brussels": 9371, "decimal": 26066, "disney": 6373, "greatest": 4602, "biblical": 10213, "undrafted": 21347, "sloane": 17558, "61": 6079, "caleb": 10185, "\u2194": 1587, "awaited": 19605, "wider": 7289, "scratched": 15047, "highlighting": 20655, "grading": 26886, "goldsmith": 22389, "polish": 3907, "additionally": 5678, "handicapped": 26920, "lough": 29504, "federer": 28294, "violence": 4808, "holding": 3173, "newbury": 29457, "##ello": 15350, "montrose": 24990, "lakes": 6597, "##\u4e5f": 30276, "astronomer": 15211, "nailed": 26304, "##hole": 11484, "folklore": 13104, "millions": 8817, "##sitor": 28307, "survivors": 8643, "rodgers": 15652, "##dham": 17661, "rather": 2738, "overhaul": 18181, "liable": 20090, "viewpoint": 21386, "invasion": 5274, "shiver": 13277, "##bol": 14956, "##tock": 17406, "[unused554]": 559, "wb": 25610, "##helm": 24546, "abstracts": 29474, "familiar": 5220, "diving": 9404, "cemetery": 4528, "politicians": 8801, "attacked": 4457, "aired": 4836, "[unused865]": 870, "newspapers": 6399, "1872": 7572, "cliffs": 13333, "shareholders": 15337, "neighborhoods": 11681, "\u0f0b": 1424, "goth": 25976, "[unused728]": 733, "punishment": 7750, "garment": 19002, "williamsburg": 26366, "maritime": 7803, "implied": 13339, "judas": 25326, "##mp": 8737, "ave": 13642, "lunatic": 26594, "comte": 19758, "##oped": 24174, "done": 2589, "montreal": 5548, "##ail": 12502, "non": 2512, "grille": 26192, "perimeter": 13443, "63": 6191, "extensions": 14305, "salford": 23001, "1735": 26063, "arrogant": 15818, "rican": 13641, "kendrick": 25341, "franz": 8965, "snort": 26759, "##\u2033": 30067, "experts": 8519, "mumbled": 11567, "assisted": 7197, "iraqi": 8956, "##tore": 19277, "usb": 18833, "\u9673": 1972, "##pf": 14376, "layne": 22452, "##hita": 23935, "bicycle": 10165, "scare": 12665, "happens": 6433, "monarchs": 19799, "##44": 22932, "burnham": 25295, "martin": 3235, "\u0627": 1270, "free": 2489, "referencing": 28789, "trainee": 26758, "##uh": 27225, "liberated": 19553, "output": 6434, "architect": 4944, "introductions": 25795, "framing": 20241, "##ander": 12243, "##nca": 20909, "ranked": 4396, "unopposed": 17123, "protects": 18227, "##inations": 22045, "\u9f8d": 1982, "sumo": 28193, "1758": 16832, "tyre": 21904, "##ricting": 28827, "deprivation": 29516, "caution": 14046, "soup": 11350, "nowadays": 13367, "\u0649": 1299, "bang": 9748, "finite": 10713, "##lum": 12942, "proficient": 27029, "\u300c": 1641, "interesting": 5875, "ballots": 17069, "##oft": 15794, "vocabulary": 16188, "grades": 7022, "##\u5b66": 30343, "engineers": 6145, "##eto": 18903, "##\u00df": 19310, "ic": 24582, "##hism": 23108, "[unused215]": 220, "relating": 8800, "hotels": 9275, "rehearsals": 24760, "like": 2066, "cranes": 27083, "featherweight": 27145, "slater": 17916, "shaved": 20665, "commentaries": 21241, "##cellular": 16882, "leach": 24520, "[unused95]": 96, "pensions": 22024, "##ua": 6692, "\u306b": 1668, "weber": 13351, "unofficial": 11982, "gettysburg": 22577, "carlton": 12989, "pursued": 9505, "outright": 13848, "dryly": 20825, "cabaret": 19685, "luminous": 25567, "##lub": 27959, "kate": 5736, "boil": 26077, "pedro": 7707, "criminal": 4735, "bought": 4149, "safeguard": 28805, "exchanging": 25620, "peninsula": 6000, "shi": 11895, "##inate": 14776, "[unused817]": 822, "uganda": 10031, "dashboard": 24923, "aerial": 9682, "##kushima": 24917, "stein": 14233, "cites": 17248, "chip": 9090, "taipei": 14004, "reducing": 8161, "annum": 28907, "rippled": 26862, "mole": 16709, "distraught": 25348, "##lynn": 27610, "orbits": 20347, "\u056f": 1227, "roasted": 28115, "burning": 5255, "##\u5834": 30332, "milan": 6954, "##raj": 14220, "##birds": 12887, "savage": 9576, "buds": 26734, "valid": 9398, "bao": 25945, "##cise": 18380, "interfaces": 19706, "apples": 18108, "recession": 19396, "ocean": 4153, "shakes": 10854, "failures": 15428, "pretty": 3492, "quote": 14686, "##rs": 2869, "[unused79]": 80, "discussing": 10537, "drowning": 14759, "##cona": 24366, "contacts": 10402, "1835": 10150, "##rzy": 28534, "\u00ba": 1089, "koppen": 20139, "##kia": 21128, "margin": 7785, "meet": 3113, "shudder": 18261, "opined": 26084, "respecting": 27818, "wise": 7968, "gps": 14658, "internship": 22676, "mingled": 25959, "illustrating": 28252, "\u025b": 1115, "returning": 4192, "fly": 4875, "sailing": 8354, "leak": 17271, "##riety": 27840, "gesturing": 22317, "tamara": 21772, "fl": 13109, "knowledge": 3716, "vernacular": 18485, "conviction": 10652, "formulated": 19788, "attends": 23933, "lean": 8155, "secluded": 27044, "flames": 7311, "vowed": 18152, "mathews": 23287, "reference": 4431, "passports": 19494, "romance": 7472, "superfamily": 24169, "mfa": 26913, "nowhere": 7880, "##\u2f65": 30160, "##dt": 11927, "wasted": 13842, "graphic": 8425, "##mmer": 15810, "1903": 5778, "tying": 15233, "[unused407]": 412, "analysts": 18288, "##edge": 24225, "geneva": 9810, "message": 4471, "\u2098": 1567, "frames": 11048, "##pu": 14289, "screamed": 7210, "counted": 8897, "massive": 5294, "cracks": 15288, "encyclopedia": 12204, "accountant": 17907, "highly": 3811, "firms": 9786, "strains": 18859, "scrolling": 28903, "cub": 21987, "leverage": 21155, "##ige": 25538, "vital": 8995, "demonstrate": 10580, "henri": 8863, "necessary": 4072, "blocking": 10851, "scrapped": 14553, "ox": 23060, "transparent": 13338, "cartoon": 9476, "snack": 19782, "##oir": 21165, "utility": 9710, "hostilities": 17601, "\u2070": 1536, "##viere": 27087, "incorrect": 16542, "isil": 19600, "53": 5187, "rey": 12569, "eine": 27665, "team": 2136, "newly": 4397, "##ux": 5602, "[unused868]": 873, "lumber": 13891, "##efe": 27235, "525": 25621, "offense": 10048, "sims": 18135, "fertile": 14946, "mellon": 22181, "##ution": 13700, "reforming": 29455, "reeve": 20726, "##tius": 22638, "likes": 7777, "shields": 11824, "##optera": 25324, "ready": 3201, "brewster": 23009, "meaningless": 25120, "90s": 17233, "[unused246]": 251, "homicide": 18268, "added": 2794, "shattered": 10909, "appointing": 28050, "rang": 8369, "[unused866]": 871, "##wang": 16600, "hate": 5223, "braden": 27232, "metaphysical": 29081, "mall": 6670, "institut": 17126, "##iza": 21335, "gough": 29124, "toilet": 11848, "considers": 10592, "drop": 4530, "speeches": 13867, "lit": 5507, "patna": 29565, "415": 24690, "scientific": 4045, "[unused676]": 681, "assassins": 18364, "unmistakable": 24219, "##nery": 27415, "##\u5c07": 30354, "making": 2437, "##hm": 14227, "[unused93]": 94, "[unused481]": 486, "breaking": 4911, "elmer": 21464, "victorious": 13846, "vanity": 18736, "##pts": 22798, "##ay": 4710, "lent": 15307, "##\u9673": 30498, "fines": 21892, "das": 8695, "##\u3072": 30199, "##\u7acb": 30457, "##wt": 26677, "sabotage": 20223, "intrinsic": 23807, "lacking": 11158, "sentencing": 23280, "todd": 6927, "##ciful": 26336, "##khan": 26370, "magnitude": 10194, "stands": 4832, "analogy": 23323, "\ufb01": 1984, "##ivate": 21466, "snatch": 23365, "emissions": 11768, "nixon": 11296, "##inium": 27585, "sank": 7569, "highways": 10292, "##\u4fdd": 30292, "utilities": 16548, "##ups": 22264, "quantum": 8559, "[unused467]": 472, "minister": 2704, "mercer": 13081, "clyde": 12085, "##dna": 28911, "supper": 15264, "clive": 14675, "##free": 23301, "myriad": 25028, "excitement": 8277, "maurice": 7994, "rainbow": 10098, "guatemala": 11779, "rainfall": 10101, "breaststroke": 28164, "seconds": 3823, "##ulla": 22187, "ashore": 16145, "maha": 24404, "ultraviolet": 26299, "##\u6728": 30401, "strasbourg": 18104, "colour": 6120, "##zio": 12426, "cut": 3013, "##ians": 7066, "glaring": 16124, "type": 2828, "kneeling": 16916, "gerry": 14926, "##foil": 24323, "elephant": 10777, "dismantled": 17293, "[unused446]": 451, "salty": 23592, "curtain": 11002, "preceding": 11003, "assault": 6101, "references": 7604, "stationary": 17337, "doubtful": 21888, "prairie": 10996, "seating": 10747, "referenced": 14964, "##berg": 4059, "joins": 9794, "einstein": 15313, "coating": 18898, "##\u00b5": 29659, "##vier": 14356, "failure": 4945, "##\u0997": 29891, "belarus": 12545, "phillip": 10852, "burroughs": 25991, "hindus": 18221, "alcoholism": 25519, "tufts": 25252, "manitoba": 10512, "supermarket": 17006, "disneyland": 25104, "##ivation": 25761, "dutton": 28784, "##anial": 27532, "solidarity": 14657, "##utus": 23998, "overly": 15241, "styles": 6782, "depictions": 20818, "forrest": 16319, "afro": 17694, "hermit": 24308, "\u1019": 1437, "maguire": 26196, "##tres": 19168, "biplane": 28686, "[unused414]": 419, "ruler": 7786, "aleppo": 22973, "believing": 8929, "rites": 17105, "[unused715]": 720, "hodgson": 26107, "##rval": 26585, "##rba": 28483, "vito": 25550, "##ratic": 23671, "[unused610]": 615, "documentary": 4516, "palestinians": 21524, "##quay": 25575, "possessed": 8679, "brushing": 12766, "voice": 2376, "potato": 14557, "octagonal": 22340, "arson": 24912, "##\u2022": 30063, "chilean": 12091, "expression": 3670, "senators": 10153, "trash": 11669, "picked": 3856, "\u10d2": 1440, "##weed": 18041, "##rber": 20473, "designer": 5859, "ty": 5939, "gogh": 26603, "[unused904]": 909, "\u7687": 1917, "byu": 23471, "##\uff1f": 30520, "##dock": 14647, "wat": 28194, "macdonald": 10406, "##ife": 29323, "fey": 23864, "anytime": 15933, "waves": 5975, "strengthening": 16003, "grandpa": 15310, "freezing": 12809, "experimental": 6388, "indicated": 5393, "ordered": 3641, "##rea": 16416, "procurement": 21423, "drive": 3298, "springs": 6076, "geological": 9843, "feather": 15550, "credibility": 21553, "##ako": 20411, "1718": 26995, "##rina": 11796, "##\u2074": 30073, "livingstone": 27656, "packaging": 14793, "shore": 5370, "pit": 6770, "##cend": 23865, "joel": 8963, "valencia": 13083, "##\u0621": 29815, "khmer": 19472, "##\u52dd": 30306, "compiling": 21953, "ax": 22260, "moderately": 17844, "##\u0924": 29859, "[unused560]": 565, "heats": 18559, "terrorism": 10130, "filters": 17736, "sighted": 19985, "##\u2097": 30095, "gestures": 18327, "##routed": 25849, "[unused772]": 777, "##ih": 19190, "nc": 13316, "amazon": 9733, "##cine": 16567, "bonaparte": 20830, "sparkling": 16619, "story": 2466, "train": 3345, "skipped": 16791, "##morphic": 18078, "[unused915]": 920, "julio": 15090, "##tta": 5946, "galloway": 22372, "##iferous": 23930, "radiant": 23751, "rhymes": 24468, "amadeus": 27185, "\u0153": 1107, "midlands": 13256, "humorous": 14742, "##\u0576": 29778, "precursor": 14988, "argyle": 26503, "vampire": 4393, "##sm": 6491, "enterprises": 9926, "perfect": 3819, "liu": 8607, "ny": 6396, "mahal": 27913, "practices": 6078, "naked": 6248, "belief": 6772, "##osity": 25949, "##ffey": 24513, "ditch": 14033, "rifle": 5883, "travelled": 7837, "reorganisation": 24934, "jamestown": 27435, "hooded": 21592, "officials": 4584, "seo": 27457, "verge": 16079, "shallow": 8467, "[unused518]": 523, "sets": 4520, "elevation": 6678, "##bon": 11735, "border": 3675, "mccarthy": 12584, "gruff": 27038, "##gley": 22971, "curb": 13730, "[unused738]": 743, "matthews": 12351, "save": 3828, "instructed": 10290, "tatum": 25913, "fools": 18656, "bari": 22466, "seeker": 29444, "309": 25048, "bones": 5944, "folded": 6999, "late": 2397, "##bies": 20536, "mane": 23055, "alarms": 29034, "covenant": 16077, "##tens": 25808, "parana": 28383, "langley": 19094, "##lun": 26896, "##\u099a": 29892, "cello": 10145, "##jean": 27687, "sasha": 14673, "belongings": 20033, "1625": 26263, "##tric": 12412, "chin": 5413, "crops": 8765, "isbn": 3175, "##set": 13462, "dividing": 16023, "gleaming": 18242, "weekdays": 19759, "your": 2115, "##ability": 8010, "\u208d": 1558, "please": 3531, "renamed": 4096, "##sel": 11246, "accent": 9669, "misty": 15167, "destroys": 20735, "clancy": 24530, "ren": 14916, "stilled": 22791, "modified": 6310, "alright": 10303, "leases": 29597, "certification": 10618, "secondary": 3905, "shadow": 5192, "orioles": 18893, "swearing": 25082, "loosen": 29476, "##27": 22907, "##kiewicz": 28563, "entrepreneurship": 20213, "\u06be": 1307, "wan": 14071, "##dell": 12662, "##tics": 14606, "advisor": 8619, "booster": 23715, "evaluated": 16330, "##\u00ab": 29654, "convenient": 14057, "##sur": 26210, "appropriately": 23263, "residential": 5647, "functions": 4972, "objectives": 11100, "##pressing": 24128, "mana": 24951, "academics": 15032, "brute": 26128, "upheld": 16813, "[unused226]": 231, "frowning": 14587, "regardless": 7539, "renovations": 15576, "rosemary": 18040, "##uro": 10976, "congratulations": 23156, "stream": 5460, "residing": 7154, "heroic": 14779, "bonds": 9547, "granted": 4379, "read": 3191, "##vir": 21663, "\u02b0": 1140, "builders": 16472, "##chel": 15721, "##abe": 16336, "sheridan": 13243, "density": 4304, "element": 5783, "apex": 13450, "invasions": 23536, "9": 1023, "personalities": 12857, "bathed": 24614, "hum": 14910, "heath": 9895, "patrons": 13497, "additional": 3176, "regulate": 15176, "##uve": 22909, "ok": 7929, "##cha": 7507, "[unused962]": 967, "newton": 8446, "inclined": 13050, "sarcastic": 22473, "dispatch": 18365, "frustrating": 25198, "junctions": 27169, "hooves": 28399, "##\u092e": 29867, "months": 2706, "[unused380]": 385, "##ned": 7228, "dorothy": 9984, "ray": 4097, "[unused125]": 130, "##mann": 5804, "headwaters": 25345, "hp": 6522, "hissed": 11402, "obeyed": 22665, "citizen": 6926, "##\u304b": 30177, "mainly": 3701, "intentional": 21249, "protege": 28567, "100th": 16919, "geo": 20248, "august": 2257, "stripping": 23987, "rodents": 28156, "eyre": 26975, "shortage": 15843, "[unused211]": 216, "beirut": 15335, "mile": 3542, "score": 3556, "ruin": 10083, "telegram": 23921, "tna": 20108, "involved": 2920, "phyllis": 20328, "sensed": 10596, "171": 18225, "navigate": 22149, "announcements": 25674, "bequeathed": 27180, "##uze": 20395, "vr": 27830, "\u093f": 1341, "##len": 7770, "rockies": 22366, "##mbit": 28878, "ladies": 6456, "widow": 7794, "48th": 27787, "edged": 13011, "harvard": 5765, "sided": 11536, "[unused882]": 887, "variability": 28436, "along": 2247, "stormy": 24166, "facilitate": 10956, "possessions": 13689, "odin": 26195, "sandstone": 11694, "vienna": 6004, "unlimited": 14668, "metropolitan": 4956, "analyzing": 20253, "[unused290]": 295, "##gn": 16206, "247": 23380, "mazda": 25286, "rounds": 6241, "federico": 20493, "patton": 18090, "##arat": 25879, "dirk": 17594, "##pc": 15042, "worst": 5409, "1882": 7131, "coordination": 12016, "durban": 25040, "hurriedly": 23878, "mod": 16913, "##iani": 25443, "shipments": 24636, "lighthouse": 10171, "980": 25195, "lodge": 7410, "saline": 28413, "decreed": 28447, "slightest": 15989, "ships": 3719, "##osta": 28696, "[unused185]": 190, "blackwell": 18776, "viscount": 12182, "\u3075": 1674, "launch": 4888, "imam": 17189, "1759": 21667, "284": 26871, "\u00f7": 1099, "incentive": 20438, "hesse": 16399, "herb": 12810, "allied": 6035, "meetings": 6295, "predator": 15267, "articles": 4790, "\u10dc": 1449, "choose": 5454, "recounts": 23412, "ata": 29533, "##\u0f44": 29963, "regency": 15647, "tram": 12517, "page": 3931, "safety": 3808, "##comb": 18274, "equivalent": 5662, "clarify": 25037, "starvation": 22611, "phenomena": 13352, "1728": 26833, "plume": 26888, "##fin": 16294, "##rance": 21621, "[unused912]": 917, "\u0e19": 1413, "substitute": 7681, "portable": 12109, "une": 16655, "jacket": 6598, "inverted": 20037, "##oge": 23884, "holster": 29447, "privileges": 14310, "1865": 6725, "##\u30cf": 30244, "##\u79be": 30453, "hormone": 18714, "tossed": 7463, "experimented": 20918, "architects": 8160, "##sms": 19230, "rebellious": 22614, "guo": 22720, "theologians": 29013, "lincoln": 5367, "##\u22121": 27944, "gifts": 9604, "hercules": 15067, "channel": 3149, "embarrassing": 16436, "##oso": 19137, "jail": 7173, "kelsey": 21004, "myself": 2870, "\u0635": 1284, "africans": 18076, "253": 23254, "##\u10d7": 29980, "factors": 5876, "locate": 12453, "##hopper": 27330, "\u1109": 1461, "francisco": 3799, "struck": 4930, "cane": 11942, "rescues": 26001, "endelle": 29581, "englishman": 25244, "##\u1111": 30004, "militant": 16830, "wax": 13844, "emotion": 7603, "##zzy": 28753, "larsen": 20094, "till": 6229, "grinding": 16153, "##\u2016": 30054, "styx": 21856, "nana": 17810, "erin": 11781, "heap": 16721, "##ctors": 24817, "xp": 26726, "##ting": 3436, "artificial": 7976, "myrtle": 21381, "divert": 27345, "\u09a6": 1364, "directors": 5501, "edinburgh": 5928, "marcia": 22548, "disappearing": 14489, "bodyguards": 25681, "##omorphic": 28503, "anya": 21728, "also": 2036, "bombardment": 10400, "##jak": 18317, "experiments": 7885, "possible": 2825, "per": 2566, "##taff": 22542, "##ach": 6776, "burying": 20491, "infinity": 15579, "connectivity": 20831, "mustard": 23187, "\u1112": 1469, "##good": 24146, "##ieg": 28872, "leon": 6506, "1924": 4814, "budge": 24981, "##ignon": 24796, "incident": 5043, "portrayal": 13954, "godfrey": 18238, "cai": 29080, "##\u043f": 29746, "##\u6751": 30404, "regulated": 12222, "zone": 4224, "##cured": 19405, "bee": 10506, "awaiting": 15497, "destinations": 14345, "colonization": 18962, "dwarf": 11229, "highlands": 11784, "integrated": 6377, "instantly": 6880, "email": 10373, "##aldi": 24657, "module": 11336, "practitioner": 18742, "indications": 24936, "##puted": 29462, "##text": 18209, "structures": 5090, "relocated": 7448, "##non": 8540, "cathy": 18305, "commemorating": 20646, "allowing": 4352, "washed": 8871, "##\u0565": 29770, "##sume": 23545, "##kam": 27052, "exports": 14338, "cameo": 12081, "targeted": 9416, "compatibility": 21778, "##hop": 18471, "##rke": 25074, "tommy": 6838, "lecturer": 9162, "sanity": 20039, "designations": 26672, "##ntly": 20630, "##iensis": 27806, "stench": 21555, "tonic": 28157, "established": 2511, "iron": 3707, "##miento": 28883, "\u0294": 1139, "dramatically": 12099, "independently": 9174, "infringement": 20701, "dealer": 11033, "texted": 24637, "experience": 3325, "haley": 16624, "bedside": 19475, "exhibitions": 8596, "melted": 12501, "sigma": 13201, "##rco": 29566, "##bn": 24700, "cedric": 26170, "pins": 16300, "28": 2654, "##\u5929": 30337, "larson": 21213, "zambia": 15633, "mild": 10256, "vicente": 17280, "##anum": 27975, "repository": 22409, "##gm": 21693, "groan": 13001, "fitted": 7130, "filming": 7467, "populated": 10357, "heaved": 19970, "weave": 25308, "cafe": 7668, "intake": 13822, "milestone": 19199, "[unused745]": 750, "tirana": 24631, "##late": 13806, "##v": 2615, "lanka": 7252, "ordained": 9492, "luce": 19913, "stroll": 27244, "prologue": 18877, "##rov": 12298, "incorporating": 13543, "federally": 20892, "##forth": 15628, "client": 7396, "completion": 6503, "dartmouth": 16960, "fraction": 12884, "addison": 18403, "\u6625": 1867, "1979": 3245, "barony": 19365, "fredrik": 25454, "pharaoh": 22089, "huff": 21301, "\u092f": 1332, "agents": 6074, "\u1d35": 1493, "fur": 6519, "lets": 11082, "delaying": 29391, "napkin": 20619, "tr": 19817, "##hei": 26036, "strolled": 20354, "##otype": 26305, "compensation": 9430, "combined": 4117, "greeted": 11188, "elliot": 11759, "##peration": 29487, "woodward": 19133, "apology": 12480, "wore": 5078, "trap": 8132, "\u0434": 1184, "humor": 8562, "rescuing": 23659, "##zan": 13471, "rustling": 29188, "aquatic": 13582, "##tions": 9285, "flipped": 9357, "fleets": 25515, "##\u09a1": 29896, "one": 2028, "wwe": 11700, "secretive": 28607, "reasonably": 16286, "gray": 3897, "##nged": 21558, "marrying": 13516, "##mada": 23574, "m\u00b3": 14241, "di": 4487, "julien": 19290, "petitioned": 22527, "##ia": 2401, "1793": 12387, "disrupted": 20275, "zenith": 28672, "\u0259": 1114, "aviator": 24035, "austin": 5899, "imposing": 16625, "##urg": 12514, "siege": 6859, "employing": 15440, "disconnected": 23657, "bentley": 15988, "##rasia": 27839, "townsville": 27492, "\u1d4f": 1501, "cry": 5390, "corvette": 22687, "pont": 21179, "distributions": 20611, "oldham": 18285, "assets": 7045, "floods": 14295, "rail": 4334, "valet": 27238, "[unused847]": 852, "brewers": 20007, "adultery": 29169, "major": 2350, "##\u0627\u0646": 18511, "##\u201c": 30058, "143": 16065, "tapped": 10410, "horizontally": 23190, "##hort": 27794, "weapon": 5195, "##quitable": 28298, "tells": 4136, "##ically": 15004, "meets": 6010, "##\u30a2": 30219, "cervical": 28711, "##ivating": 17441, "##firmed": 23141, "curator": 13023, "roofed": 26080, "week": 2733, "##59": 28154, "georgetown": 12982, "strike": 4894, "\u2190": 1583, "theoretically": 22634, "##\u524d": 30302, "carousel": 27628, "##rel": 16570, "byrne": 14928, "irish": 3493, "oceans": 17401, "without": 2302, "beginning": 2927, "railway": 2737, "1913": 5124, "afi": 28697, "emma": 5616, "170": 10894, "clapton": 24705, "##fe": 7959, "nfc": 22309, "\u2032": 1531, "pipes": 12432, "sighting": 29426, "urdu": 12454, "cs": 20116, "served": 2366, "##4th": 26724, "##ractive": 26884, "##rie": 7373, "gunnar": 26138, "##yar": 13380, "nbc": 6788, "guardians": 14240, "respects": 17475, "##mble": 19661, "##anal": 27953, "racehorse": 25068, "1940": 3878, "infrared": 14611, "bursts": 19239, "attracts": 17771, "roof": 4412, "craft": 7477, "investors": 9387, "unique": 4310, "mankind": 14938, "##\u98a8": 30503, "##22": 19317, "considerable": 6196, "##cts": 16649, "##\u30c1": 30236, "##titles": 27430, "star": 2732, "using": 2478, "result": 2765, "za": 23564, "##itz": 8838, "engulfed": 24692, "yorker": 19095, "reassure": 24647, "usage": 8192, "##iana": 11410, "promptly": 13364, "twelve": 4376, "##mins": 21266, "##\u6625": 30393, "definitions": 15182, "vijay": 17027, "orchestra": 4032, "dug": 8655, "##grapher": 18657, "morning": 2851, "##lander": 22691, "[unused960]": 965, "##enes": 28553, "jackie": 9901, "elvis": 12280, "##dun": 27584, "coefficients": 21374, "kidd": 25358, "troops": 3629, "##\u0bb3": 29929, "167": 16785, "billie": 18210, "##dale": 5634, "kc": 21117, "submarine": 6982, "\u099a": 1356, "willie": 9893, "birthday": 5798, "manning": 11956, "victim": 6778, "mw": 12464, "odd": 5976, "krakow": 14576, "user": 5310, "likely": 3497, "estimation": 24155, "pushes": 13956, "vancouver": 6930, "leaned": 4016, "sucking": 13475, "##nch": 12680, "grasped": 15517, "heaven": 6014, "attained": 12754, "sponsored": 6485, "disapproval": 21406, "##lr": 20974, "##rator": 16259, "fins": 18564, "clock": 5119, "\u5b89": 1820, "ow": 27593, "hailey": 21664, "[unused771]": 776, "##saurus": 22244, "migration": 9230, "mcdowell": 25005, "##suka": 26544, "##\u30c3": 30237, "jocelyn": 23786, "prosperous": 18241, "strictly": 9975, "ganga": 28646, "adults": 6001, "hiking": 13039, "mm": 3461, "\u1d63": 1508, "hermann": 12224, "blankets": 15019, "nestled": 22704, "differing": 16965, "address": 4769, "##gon": 7446, "boutique": 24611, "arranging": 19018, "quintet": 18109, "swallow": 10577, "escorts": 24877, "hopefully": 11504, "##missive": 27876, "streaming": 11058, "[unused837]": 842, "skeleton": 13526, "##ske": 17140, "uninhabited": 24749, "tennis": 5093, "##ldon": 19932, "considerably": 9839, "##urt": 19585, "ridges": 16386, "photographers": 17008, "jennifer": 7673, "involving": 5994, "salle": 18005, "dow": 23268, "plan": 2933, "baptised": 28798, "[unused37]": 38, "##ira": 7895, "excused": 28512, "##ried": 11998, "gorilla": 23526, "orton": 25161, "brazil": 4380, "[unused936]": 941, "##amina": 27651, "slump": 28702, "##miya": 29312, "dyed": 28432, "##logie": 27095, "vulcan": 25993, "students": 2493, "\u02b7": 1143, "welsh": 6124, "artworks": 22000, "strauss": 16423, "amiga": 24126, "watch": 3422, "yahoo": 20643, "rafael": 10999, "occupants": 18837, "##\u5409": 30319, "\u10d3": 1441, "##ttering": 19567, "dfb": 28894, "switched": 7237, "camel": 19130, "clicks": 29225, "306": 24622, "nearing": 23454, "##ai": 4886, "apologetic": 29352, "\u3092": 1690, "weaver": 14077, "[unused578]": 583, "lists": 7201, "scotland": 3885, "mcintyre": 24564, "curtiss": 26431, "wang": 7418, "flags": 9245, "##cake": 17955, "somehow": 5064, "hacking": 23707, "moi": 25175, "conqueror": 25466, "larger": 3469, "journalists": 8845, "reconnaissance": 8967, "truce": 18415, "[unused534]": 539, "summarized": 22539, "extent": 6698, "\u300d": 1642, "\u5bb6": 1825, "elaborate": 9603, "catchment": 22865, "##carriage": 21539, "quadrant": 29371, "##my": 8029, "prank": 26418, "[unused945]": 950, "##chment": 22729, "suriname": 25050, "crotch": 28629, "lover": 7089, "differs": 12980, "rte": 20375, "##\u1166": 30009, "process": 2832, "deciduous": 22411, "it": 2009, "23rd": 13928, "gilles": 21717, "magna": 20201, "raleigh": 15842, "purcell": 26429, "##rom": 21716, "laurie": 16450, "trieste": 25199, "bahia": 22474, "##mies": 28397, "jesus": 4441, "1855": 8492, "hee": 18235, "introduced": 3107, "raging": 17559, "scenario": 11967, "hawker": 23937, "hunting": 5933, "hampered": 22532, "china": 2859, "compelled": 15055, "discovered": 3603, "floor": 2723, "\u0630": 1279, "jennie": 27557, "\u2207": 1595, "invariant": 23915, "prosecutor": 12478, "will": 2097, "awarded": 3018, "##+": 29622, "conserve": 27749, "casualties": 8664, "sadie": 21330, "nam": 15125, "contention": 18974, "[unused408]": 413, "tempted": 16312, "skopje": 29255, "##\u1174": 30018, "marriages": 12743, "vickers": 18571, "militants": 17671, "radical": 7490, "languages": 4155, "orchestras": 19505, "beg": 11693, "slowly": 3254, "freedoms": 22467, "stained": 9702, "##\u539f": 30313, "hoping": 5327, "bruno": 10391, "headlines": 19377, "venezuelan": 15332, "##bright": 26614, "##ingdon": 29138, "blinding": 19709, "##sche": 22842, "manuscript": 8356, "gunner": 14850, "stays": 12237, "[unused642]": 647, "regulars": 24945, "scottish": 4104, "##ritan": 25279, "##\u3057": 30183, "underway": 14128, "take": 2202, "##sable": 19150, "##sko": 21590, "manor": 6952, "theatres": 13166, "buren": 29470, "##\u057d": 29781, "escape": 4019, "[unused242]": 247, "##bruck": 28985, "barak": 27739, "[unused500]": 505, "facing": 5307, "cramped": 22766, "1748": 24445, "##islaus": 25678, "\u91d1": 1964, "whorls": 25637, "##iere": 21253, "halo": 17201, "thinking": 3241, "##hana": 15788, "detailing": 17555, "##laid": 24393, "scanning": 13722, "concepcion": 27331, "plots": 14811, "mainland": 8240, "unison": 18732, "heartbreak": 27724, "sisters": 5208, "174": 19492, "survey": 5002, "startled": 9696, "spawning": 27957, "ensemble": 7241, "[unused583]": 588, "divides": 20487, "insistence": 20616, "replied": 3880, "instruction": 7899, "powerplant": 19526, "stimulation": 20858, "atv": 29108, "medicinal": 20632, "\u8cb4": 1953, "occasional": 8138, "##asse": 27241, "trace": 7637, "donnell": 18016, "reservation": 11079, "##\uff5e": 30521, "cam": 11503, "[unused585]": 590, "ferries": 20157, "distracted": 11116, "attorneys": 16214, "1652": 28853, "##otte": 28495, "cyclists": 21912, "##te": 2618, "takes": 3138, "weird": 6881, "millimetres": 13388, "555": 29541, "##\u0582": 29785, "peg": 25039, "[unused907]": 912, "sculpted": 19921, "yankees": 11081, "##isi": 17417, "proximity": 10039, "##ders": 13375, "##eux": 20860, "talked": 5720, "tale": 6925, "tex": 16060, "vanguard": 18332, "##iq": 18515, "guides": 12468, "417": 27519, "relinquished": 26566, "##\u4eba": 30282, "competed": 3879, "guarantees": 21586, "minerals": 13246, "emptied": 21764, "saigon": 24001, "##ssa": 11488, "canned": 27141, "1711": 28455, "pancakes": 28470, "hare": 14263, "murmur": 20227, "rebranded": 18233, "##\u0e22": 29952, "490": 22288, "hostel": 21071, "proportion": 10817, "rubbish": 29132, "hugged": 10308, "\u3081": 1680, "glove": 15913, "chico": 22136, "2008": 2263, "enzymes": 16285, "##ole": 9890, "\u738b": 1909, "fergus": 21023, "unexpectedly": 14153, "chancel": 16482, "schleswig": 21173, "aims": 8704, "inquisition": 24638, "finances": 16156, "thirst": 21810, "##\u3089": 30211, "yugoslavia": 8936, "commotion": 23960, "sergey": 22703, "related": 3141, "develops": 11791, "justify": 16114, "monde": 23117, "ravaged": 25537, "explained": 4541, "eds": 11985, "sofia": 8755, "boosted": 28043, "surprise": 4474, "swim": 9880, "doug": 8788, "zip": 14101, "sgt": 17001, "[unused580]": 585, "beatrice": 14807, "president": 2343, "create": 3443, "gamble": 18503, "reid": 9027, "1885": 6571, "deafening": 28840, "gown": 11739, "usc": 15529, "graves": 9729, "##sl": 14540, "mayfield": 27224, "cutting": 6276, "marilyn": 14749, "columbian": 25882, "prasad": 17476, "bottled": 26071, "barrett": 12712, "tongue": 4416, "##antly": 15706, "defects": 18419, "snoop": 29044, "entirety": 15700, "snaps": 20057, "chesapeake": 20867, "leave": 2681, "universal": 5415, "liberalism": 26505, "reassured": 26350, "sourced": 23184, "apostles": 19178, "##cated": 12921, "approaches": 8107, "preston": 8475, "blaming": 24114, "carolyn": 15611, "flowing": 8577, "alcoholic": 14813, "carroll": 10767, ",": 1010, "lump": 15116, "precipitation": 13511, "speculated": 15520, "squid": 26852, "##rya": 20444, "1643": 25534, "##\u0f51": 29964, "##quel": 22197, "constitute": 12346, "wrecked": 18480, "##vian": 18073, "voters": 7206, "##ava": 12462, "mug": 14757, "malawi": 18137, "barns": 25684, "vacated": 15348, "somber": 28587, "brewing": 16005, "1932": 4673, "pic": 27263, "##lster": 29576, "pere": 23976, "wu": 8814, "##\u0986": 29884, "obama": 8112, "tentacles": 24719, "##iness": 9961, "##urse": 28393, "hungary": 5872, "liver": 11290, "fled": 6783, "##wn": 7962, "copying": 24731, "biggest": 5221, "spice": 17688, "generalized": 18960, "traverse": 20811, "##hic": 16066, "##cala": 25015, "##me": 4168, "nascar": 11838, "hereford": 21136, "##ouin": 25058, "##\u208a": 30086, "wagons": 14525, "##ik": 5480, "robes": 17925, "discussed": 6936, "dried": 9550, "##ntes": 17340, "\u4e5f": 1750, "fiona": 13073, "notebook": 14960, "screenings": 25437, "##\u2071": 30072, "doctoral": 11316, "ahl": 18347, "650": 13757, "serb": 20180, "1649": 26538, "khz": 17737, "oro": 20298, "##och": 11663, "simeon": 24371, "##ffie": 29055, "norman": 5879, "correspondence": 11061, "##rl": 12190, "forwards": 19390, "##rza": 24175, "greenfield": 26713, "slash": 18296, "blink": 12373, "pea": 26034, "anal": 20302, "processes": 6194, "debra": 28762, "##\u0448": 29753, "scratching": 20291, "promotions": 15365, "taxation": 14952, "nicola": 17388, "bordeaux": 16384, "[unused859]": 864, "losing": 3974, "##tya": 21426, "colleague": 11729, "decided": 2787, "grave": 6542, "##gata": 26589, "[unused46]": 47, "\u590f": 1808, "bitterness": 22364, "##istic": 6553, "unarmed": 23206, "\u1165": 1472, "himalayan": 28333, "teamed": 12597, "shattering": 21797, "sentinel": 16074, "excluded": 12421, "front": 2392, "entity": 9178, "dies": 8289, "professionals": 8390, "##anu": 24076, "grill": 18651, "petersen": 22615, "##manship": 21530, "##kan": 9126, "brighton": 10309, "fancy": 11281, "tensions": 13136, "multitude": 20889, "operator": 6872, "snuggled": 26867, "downtown": 5116, "smashwords": 25151, "jedi": 27273, "rex": 10151, "rodeo": 18936, "##uming": 24270, "val": 11748, "successfully": 5147, "trance": 16588, "hating": 22650, "inhibit": 26402, "kit": 8934, "pole": 6536, "topology": 19587, "somme": 25158, "shen": 21882, "##\u0449": 29754, "rib": 19395, "##\u116e": 30014, "iihf": 26904, "federation": 4657, "reviewing": 15252, "armistice": 19125, "cornerstone": 23354, "face": 2227, "portuguese": 5077, "karim": 25461, "[unused149]": 154, "athletes": 7576, "uncertainty": 12503, "northeast": 4794, "cultures": 8578, "##iel": 9257, "##je": 6460, "upwards": 14873, "##shah": 25611, "malayalam": 12998, "denton": 23906, "velvet": 10966, "harshly": 21052, "[unused375]": 380, "guinea": 7102, "venom": 15779, "appear": 3711, "sending": 6016, "paved": 12308, "misleading": 22369, "towels": 24213, "##cking": 23177, "aboard": 7548, "konrad": 22958, "##rona": 26788, "##zic": 27586, "histories": 15215, "identities": 15702, "##\u043e\u0432\u0438\u0447": 16198, "##hiro": 18334, "webber": 19861, "albuquerque": 19334, "anthropologist": 21571, "prophecy": 14951, "\u03b7": 1161, "sorority": 27600, "beers": 18007, "cheerfully": 27403, "shifts": 12363, "##ver": 6299, "barrington": 26469, "##imeter": 19198, "##icio": 27113, "##point": 8400, "egypt": 5279, "##ories": 18909, "baking": 21522, "##ctable": 23576, "offices": 4822, "##eles": 26741, "aldo": 28163, "tall": 4206, "smacked": 19203, "sawyer": 13975, "projectile": 25921, "nord": 13926, "ferns": 25715, "aye": 13442, "##dern": 25888, "excel": 24970, "2015": 2325, "archaeologists": 19254, "neurological": 23130, "trembled": 14823, "##yas": 16303, "294": 28135, "conference": 3034, "alexander": 3656, "breathed": 8726, "strangers": 12358, "grassroots": 23299, "203": 18540, "thus": 2947, "bitten": 19026, "joyah": 27098, "statehood": 28000, "##top": 14399, "1813": 12169, "##minated": 26972, "periods": 6993, "busted": 23142, "rune": 23276, "glance": 6054, "palmer": 8809, "plate": 5127, "croydon": 21838, "dogg": 28844, "incorporates": 12374, "ton": 10228, "draw": 4009, "calendar": 8094, "##mm": 7382, "weir": 16658, "##\u03c7": 29737, "masters": 5972, "\u0989": 1350, "allowed": 3039, "significance": 7784, "hint": 9374, "##deh": 25383, "stripe": 18247, "fugitive": 21329, "\u2081": 1548, "##guchi": 16918, "grimly": 22561, "palms": 9486, "[unused516]": 521, "merton": 28169, "cooked": 12984, "rafe": 15819, "##crats": 23423, "canteen": 26449, "thompson": 5953, "surveyed": 12876, "ana": 9617, "[unused196]": 201, "untouched": 22154, "imaging": 12126, "napoli": 29485, "307": 24559, "realism": 15650, "extreme": 6034, "##n": 2078, "mclaughlin": 23720, "lunar": 11926, "journeys": 19147, "##vid": 17258, "supremacy": 22006, "hogan": 14851, "artefacts": 25762, "##resses": 25932, "parades": 26635, "multicultural": 27135, "[unused438]": 443, "rise": 4125, "movement": 2929, "routine": 9410, "moldova": 16772, "##\u00a7": 29650, "unusual": 5866, "##hoe": 14490, "fenton": 27096, "disposed": 21866, "oxygen": 7722, "discretion": 19258, "gilded": 23880, "##tically": 25084, "296": 27200, "impulse": 14982, "functional": 8360, "##bbly": 24200, "132": 14078, "similar": 2714, "undefeated": 15188, "1629": 27882, "bearing": 7682, "##rring": 18807, "diagram": 16403, "##henko": 19767, "##\u1169": 30011, "wow": 10166, "hurry": 9241, "##\u53f2": 30316, "##phine": 20738, "lair": 21039, "##sy": 6508, "[unused113]": 118, "devastated": 13879, "##sb": 19022, "denies": 23439, "bwf": 21215, "robust": 15873, "resented": 27188, "polytechnic": 14466, "\u10d8": 1445, "##ovsky": 21983, "britney": 29168, "##sdale": 15145, "polymers": 27216, "plausible": 24286, "1854": 8421, "tomorrow": 4826, "##cot": 24310, "bal": 28352, "##croft": 14716, "highs": 26836, "lowest": 7290, "mp": 6131, "minimum": 6263, "ming": 11861, "spacecraft": 12076, "actual": 5025, "georgie": 20280, "hitch": 27738, "cricketer": 9490, "transported": 9687, "silvery": 21666, "she": 2016, "track": 2650, "##\u5fc4": 30376, "herald": 9536, "plainly": 24250, "nursery": 13640, "403": 28203, "rubbing": 10137, "stupidity": 28072, "czechoslovak": 21282, "##ee": 4402, "publications": 5523, "madam": 21658, "##claim": 25154, "fragmentation": 28424, "breuning": 18177, "[unused486]": 491, "tip": 5955, "josiah": 24461, "panthers": 12915, "##gia": 10440, "souza": 26598, "[unused893]": 898, "##bard": 21458, "##ents": 11187, "reinforce": 19444, "accusation": 19238, "climb": 7105, "listened": 7791, "eucalyptus": 27111, "\u9762": 1976, "extensively": 8077, "diego": 5277, "dvd": 4966, "##\u667a": 30395, "more": 2062, "\u0636": 1285, "##bility": 8553, "##32": 16703, "vertices": 18984, "deposed": 18298, "##\u51fa": 30300, "ties": 7208, "terror": 7404, "metre": 7924, "ordering": 13063, "##shima": 24772, "javanese": 27344, "##rrell": 14069, "##udence": 29424, "removes": 20362, "\u2011": 1514, "guitars": 7334, "beetle": 7813, "bile": 23974, "silence": 4223, "weaknesses": 21775, "guadalajara": 22887, "##ostal": 29381, "\u043a": 1189, "compilations": 22754, "manage": 6133, "##gin": 11528, "##fen": 18940, "migratory": 22262, "attempted": 4692, "id": 8909, "duke": 3804, "##ming": 6562, "clocks": 20940, "archived": 9749, "emilia": 20417, "cv": 26226, "##class": 26266, "gora": 26967, "365": 19342, "enable": 9585, "##\u9053": 30483, "chevy": 29009, "settlement": 4093, "chemist": 15535, "##tsu": 10422, "minute": 3371, "##yad": 25152, "\u76f8": 1919, "maroon": 22222, "riga": 17557, "##ctor": 16761, "grant": 3946, "##imate": 21499, "outrage": 19006, "##\u0b9f": 29920, "pm": 7610, "##dez": 24601, "appropriated": 29223, "cullen": 19925, "##outs": 12166, "contingent": 15445, "pas": 14674, "antigen": 28873, "supporter": 10129, "microphone": 15545, "\u0bb5": 1394, "##dgets": 28682, "##eil": 24359, "slowing": 18068, "hunt": 5690, "##oka": 12352, "afforded": 22891, "hallways": 28274, "\u1100": 1455, "backyard": 16125, "##uddin": 17375, "need": 2342, "##tas": 10230, "malone": 16321, "cent": 9358, "proportional": 14267, "##\u672c": 30402, "threshold": 11207, "bleed": 19501, "\u6b62": 1887, "location": 3295, "adjective": 24931, "durga": 28746, "##rse": 22573, "dolphins": 13600, "1811": 13086, "thugs": 24106, "\u308c": 1688, "disturb": 22995, "sierra": 7838, "distinguished": 5182, "kanye": 29270, "strength": 3997, "##na": 2532, "heidelberg": 16793, "sargent": 27599, "melvin": 20993, "astros": 22058, "dorset": 15367, "##nay": 16741, "[unused982]": 987, "situation": 3663, "emmy": 10096, "hangs": 17991, "ts": 24529, "podium": 14502, "##sson": 7092, "analyze": 17908, "sweetie": 22872, "keeping": 4363, "responsible": 3625, "hirsch": 28127, "##ed": 2098, "banks": 5085, "departing": 15971, "##itic": 18291, "quarterfinal": 29380, "baja": 19497, "transmitter": 11659, "##rral": 24988, "narrator": 11185, "routines": 23964, "montagu": 26241, "nikolay": 28494, "##\u02b0": 29706, "miguel": 8374, "##ile": 9463, "observers": 14009, "##uki": 14228, "philipp": 20765, "fumble": 19576, "arithmetic": 20204, "belfast": 10330, "msc": 23794, "##ising": 9355, "surgery": 5970, "militia": 8396, "ravi": 16806, "70": 3963, "privilege": 14293, "tar": 16985, "##mour": 20360, "thirds": 12263, "1744": 25846, "##ece": 26005, "al": 2632, "objection": 22224, "vegetable": 15415, "scarce": 18782, "##jou": 23099, "favourite": 8837, "1850s": 16488, "comment": 7615, "ferris": 23202, "\u798f": 1926, "approximately": 3155, "moans": 24675, "leaps": 29195, "treaties": 16013, "snail": 10879, "exceeding": 17003, "##insky": 20894, "fran": 23151, "charges": 5571, "ending": 4566, "1881": 7005, "physicist": 13702, "posing": 20540, "recalling": 21195, "trim": 12241, "tully": 25724, "##hedral": 27310, "boating": 23639, "[unused831]": 836, "worldwide": 4969, "luke": 5355, "developing": 4975, "\u4f8d": 1765, "dodge": 11898, "treatise": 15326, "surgeon": 9431, "counterattack": 27835, "salts": 23480, "responsive": 26651, "contemporaries": 16682, "torment": 21741, "##tters": 24168, "\u5f73": 1845, "disposal": 13148, "sucked": 8631, "marian": 14042, "\u02e4": 1154, "disagreed": 18335, "##iad": 28665, "##\u02b8": 29710, "##rich": 13149, "rider": 7945, "##\u3080": 30205, "nay": 29349, "1715": 22606, "##her": 5886, "temperate": 16868, "unusually": 12890, "##aro": 10464, "dismiss": 19776, "conjunction": 9595, "cave": 5430, "cars": 3765, "gene": 4962, "kerman": 24500, "##pressed": 19811, "toilets": 21674, "natal": 17489, "skins": 21049, "loyal": 8884, "turnbull": 26439, "\u2083": 1550, "silently": 8601, "sikhs": 26697, "1829": 11523, "healy": 25706, "##\u062d": 29820, "lanes": 10914, "posthumous": 19086, "\u5065": 1768, "referees": 25118, "agree": 5993, "revolutions": 25239, "kant": 26044, "##ville": 3077, "\u209c": 1571, "focus": 3579, "arguments": 9918, "rampage": 29216, "##tara": 27115, "benz": 17770, "suzanne": 15146, "##dick": 24066, "missionaries": 11743, "canucks": 26177, "northwards": 27592, "gale": 14554, "generating": 11717, "##washed": 27283, "candi": 27467, "bonded": 20886, "applies": 12033, "buys": 23311, "manager": 3208, "grossed": 17500, "homme": 26574, "##cino": 21081, "greenland": 16128, "handsome": 8502, "backdrop": 18876, "##lad": 27266, "batavia": 28917, "see": 2156, "clinics": 17865, "##uding": 24539, "shane": 8683, "frances": 10360, "cpu": 17368, "inference": 28937, "##\u0f54": 29966, "handicap": 15822, "secondly": 16378, "##lson": 14881, "prefix": 17576, "trier": 25487, "##aker": 22626, "kennedy": 5817, "sleep": 3637, "wickets": 10370, "mortar": 14335, "simulated": 23599, "shrine": 9571, "##\u2194": 30115, "breathing": 5505, "hillary": 18520, "dumont": 25830, "defense": 3639, "stiff": 10551, "notwithstanding": 26206, "pairing": 22778, "[unused342]": 347, "accuracy": 10640, "fingertips": 12206, "[unused17]": 18, "cafes": 23812, ")": 1007, "adam": 4205, "houston": 5395, "crest": 11146, "hello": 7592, "danger": 5473, "improving": 9229, "##brush": 18623, "airbus": 20901, "##liest": 21292, "metabolic": 21453, "##\u79c0": 30454, "[unused522]": 527, "incredible": 9788, "\u0444": 1199, "\uff5e": 1995, "ten": 2702, "##backs": 12221, "killings": 16431, "sis": 24761, "kyiv": 25669, "neptune": 21167, "roberts": 7031, "stating": 5517, "breathe": 7200, "harness": 17445, "##\u0131": 11722, "flexible": 12379, "appreciated": 12315, "torque": 15894, "defective": 28829, "gears": 19456, "depart": 18280, "mention": 5254, "alpine": 10348, "crore": 21665, "affected": 5360, "affecting": 12473, "mississippi": 5900, "##cade": 21869, "gifted": 12785, "wireless": 9949, "##date": 13701, "##\u0639": 29830, "owned": 3079, "uncomfortably": 22502, "##val": 10175, "timmy": 27217, "##rran": 28327, "decide": 5630, "##sley": 8002, "assignments": 14799, "license": 6105, "interstate": 7553, "dashed": 18198, "dedicated": 4056, "leighton": 26873, "web": 4773, "rebels": 8431, "nesting": 21016, "benito": 23595, "##tropical": 25528, "kidnap": 22590, "augsburg": 24362, "##\u7af9": 30459, "spencer": 7084, "##sie": 11741, "abandoning": 19816, "forge": 15681, "palais": 22113, "disadvantage": 20502, "production": 2537, "genevieve": 20245, "##nas": 11649, "coordinating": 19795, "tilt": 17010, "shaft": 9093, "\u09b7": 1375, "col": 8902, "uncover": 26944, "##3": 2509, "approached": 5411, "yeast": 21957, "chuckled": 10252, "invade": 18445, "z": 1062, "pmid": 20117, "warship": 21905, "cavern": 16679, "singleton": 28159, "##\u4e45": 30274, "##nton": 15104, "jersey": 3933, "hence": 6516, "controllers": 21257, "bargain": 17113, "##cuting": 29163, "cried": 6639, "[unused193]": 198, "pool": 4770, "##yon": 14001, "pontiac": 24538, "packard": 24100, "##box": 8758, "frankenstein": 22478, "solomon": 9168, "explosive": 11355, "##lez": 28060, "minas": 21750, "hernandez": 13688, "##ncies": 14767, "##mbling": 29256, "legs": 3456, "streamed": 18498, "sultanate": 21308, "arrogance": 24416, "differently": 11543, "protectorate": 20394, "\u00a32": 21853, "renewed": 9100, "##gnant": 27881, "scores": 7644, "enthusiastically": 24935, "quad": 17718, "sacks": 14918, "helmut": 24515, "attention": 3086, "flattened": 16379, "##nett": 15361, "meredith": 10635, "##ppa": 13944, "durham": 9296, "seth": 6662, "tribunal": 12152, "protestants": 19592, "##bial": 21102, "nickelodeon": 20814, "##air": 11215, "##pel": 11880, "canonical": 18562, "richly": 26502, "pollock": 25218, "##\u30e2": 30253, "stanis\u0142aw": 26133, "onslaught": 28644, "##gee": 18372, "carey": 11782, "textual": 25304, "unofficially": 29322, "\u8c37": 1951, "lima": 12967, "1888": 6690, "honourable": 17164, "deposition": 19806, "ways": 3971, "parking": 5581, "rodrigo": 18943, "hesitant": 20221, "numb": 15903, "78": 6275, "bianca": 18051, "meteorological": 20557, "hear": 2963, "125": 8732, "sprint": 9043, "buzzing": 20386, "##ne": 2638, "mimic": 23150, "##ffed": 15388, "dreadful": 21794, "tried": 2699, "staffed": 21121, "cook": 5660, "146": 16333, "lambert": 12838, "gallons": 18501, "firearms": 13780, "[SEP]": 102, "partridge": 26079, "mickey": 11021, "640": 19714, "therapeutic": 17261, "\u3064": 1664, "glittering": 20332, "##ruff": 26919, "cross": 2892, "oils": 20631, "dso": 22951, "factories": 11123, "##\u3086": 30209, "glancing": 10167, "snakes": 12971, "dishes": 10447, "lynn": 9399, "contend": 27481, "##\u5bb6": 30351, "bold": 7782, "scenic": 12916, "\u0937": 1337, "lee": 3389, "colloquially": 23992, "##phic": 17926, "fusion": 10077, "concept": 4145, "mani": 23624, "##rrie": 22155, "##orous": 25373, "umar": 27981, "coordinator": 10669, "starboard": 25211, "##\u5b9a": 30348, "directly": 3495, "\u72ac": 1908, "##bc": 9818, "\u2113": 1577, "sho": 26822, "eastenders": 28936, "priesthood": 17911, "courtney": 14139, "harden": 28751, "against": 2114, "##iji": 27821, "ellison": 21513, "investigating": 11538, "[unused200]": 205, "\u062f": 1278, "1964": 3546, "anatolia": 23747, "##\u0bb2": 29928, "impromptu": 29213, "wurttemberg": 16346, "stepmother": 26959, "bros": 10243, "##opers": 27342, "castles": 15618, "devlin": 24389, "\u1d2e": 1491, "rolling": 5291, "mercedes": 10793, "passion": 6896, "diagnosed": 11441, "1747": 24522, "[unused595]": 600, "tumbled": 18303, "lot": 2843, "reinstated": 18671, "backbone": 21505, "damascus": 16094, "##\u06af": 29842, "abandon": 10824, "champions": 3966, "behind": 2369, "tuning": 17372, "[unused582]": 587, "famed": 15607, "ensuring": 12725, "8": 1022, "sp": 11867, "##\u30aa": 30225, "##sw": 26760, "suspect": 8343, "sprinted": 25156, "##avia": 15164, "stacey": 19997, "##schaft": 26527, "sb": 24829, "nipples": 28124, "declines": 26451, "diocese": 5801, "teams": 2780, "centre": 2803, "##ul": 5313, "edouard": 21627, "acquaintances": 29409, "strung": 23509, "whistle": 13300, "contains": 3397, "l": 1048, "1920s": 6641, "nak": 17823, "\u624b": 1858, "avery": 12140, "scarcely": 20071, "flemish": 15427, "##oms": 22225, "mayo": 14415, "cardiac": 15050, "implementation": 7375, "conspicuous": 19194, "arbor": 19679, "democrats": 8037, "gill": 12267, "##omi": 20936, "##acio": 21361, "quantity": 11712, "juno": 20788, "cream": 6949, "##ect": 22471, "##ados": 28118, "stephanie": 11496, "mansion": 7330, "neighbours": 14754, "encouragement": 15846, "accustomed": 17730, "regression": 26237, "parted": 10277, "christi": 21359, "##oux": 28700, "refusing": 11193, "[unused382]": 387, "##iling": 16281, "##aceae": 18339, "demeanor": 21745, "kay": 10905, "crouch": 21676, "[unused243]": 248, "prof": 11268, "spaceship": 25516, "projected": 11310, "afterwards": 5728, "telecommunications": 12108, "playable": 16854, "##ista": 11921, "##oma": 9626, "\u02be": 1147, "oxidation": 19577, "sharma": 14654, "\u0251": 1110, "photographer": 8088, "nonlinear": 27400, "dialect": 9329, "osborne": 16732, "##ors": 5668, "voiced": 6126, "##ghan": 22218, "rachel": 5586, "manufacturers": 8712, "pi": 14255, "enamel": 29484, "##\u66f2": 30396, "knots": 9439, "ability": 3754, "formula": 5675, "burns": 7641, "schedules": 20283, "##max": 17848, "galen": 21062, "emancipation": 22656, "width": 9381, "modern": 2715, "buffy": 18467, "fashion": 4827, "caf": 24689, "passenger": 4628, "eireann": 29157, "modelling": 19518, "football": 2374, "hits": 4978, "might": 2453, "ezekiel": 28743, "1817": 12529, "sexuality": 13798, "conde": 24707, "rest": 2717, "signal": 4742, "release": 2713, "colours": 8604, "dancing": 5613, "##tp": 25856, "yoga": 13272, "##claiming": 27640, "##nding": 15683, "ipswich": 15435, "75th": 25092, "##cini": 27085, "devi": 14386, "brandy": 17951, "ideas": 4784, "remembrance": 19451, "consult": 23363, "670": 25535, "chronic": 11888, "lowlands": 26411, "alison": 12684, "operating": 4082, "tender": 8616, "bred": 13680, "nathan": 7150, "manfred": 19149, "\u0641": 1291, "supposed": 4011, "straightforward": 19647, "to": 2000, "loosened": 22456, "idf": 24011, "transcribed": 26223, "##\u0926": 29861, "[unused172]": 177, "radiated": 23000, "##ran": 5521, "processed": 13995, "##cit": 26243, "seize": 15126, "speculation": 12143, "frowns": 29303, "arturo": 20520, "almost": 2471, "scandal": 9446, "##inated": 15833, "slug": 23667, "##\uff0f": 30518, "##gement": 20511, "\u53f8": 1791, "sixteen": 7032, "standardization": 28648, "song": 2299, "##hid": 27511, "##mon": 8202, "dungeon": 16633, "horseshoe": 23449, "\u00a3100": 27708, "raaf": 22709, "##ament": 24996, "underground": 5230, "##\u03b9": 18199, "dietary": 23444, "siena": 23754, "credited": 5827, "refining": 28596, "brian": 4422, "##aint": 22325, "consort": 13440, "romans": 10900, "88": 6070, "[unused527]": 532, "charlemagne": 27257, "archaeology": 12009, "twin": 5519, "widows": 24835, "portrait": 6533, "logistics": 12708, "##ins": 7076, "ps": 8827, "glacier": 10046, "dig": 10667, "archdiocese": 12658, "manipulated": 20063, "##rut": 22134, "extending": 8402, "politics": 4331, "conversion": 7584, "courage": 8424, "##face": 12172, "securely": 28999, "ames": 19900, "repay": 24565, "tramway": 17050, "flourished": 17893, "select": 7276, "presidents": 11274, "tata": 23236, "##,": 29623, "dismissed": 7219, "\u0628": 1271, "juan": 5348, "plastics": 26166, "biased": 25352, "##wu": 16050, "illicit": 25049, "coordinated": 14206, "natalia": 21521, "hoped": 5113, "antilles": 27695, "erwin": 22209, "cited": 6563, "keynes": 22152, "dominates": 29532, "sweep": 11740, "piazza": 22463, "woodstock": 21028, "forster": 21316, "central": 2430, "fused": 19660, "antoine": 12445, "devastating": 14886, "[unused985]": 990, "knuckles": 13513, "impressed": 7622, "##iger": 17071, "stacked": 16934, "necessarily": 9352, "refined": 15514, "printing": 8021, "flashes": 16121, "potomac": 18854, "higher": 3020, "govern": 21208, "esq": 25325, "directed": 2856, "gazes": 23514, "darryl": 22821, "sponsors": 13162, "syndicate": 16229, "defence": 4721, "acknowledged": 8969, "summers": 10945, "commuted": 26704, "stain": 21101, "##\u02b2": 29707, "fiber": 11917, "##fp": 22540, "completing": 7678, "watching": 3666, "confess": 18766, "##than": 21604, "illustrator": 13825, "stanton": 15845, "loaned": 13190, "ajax": 18176, "mono": 18847, "condoms": 29094, "linnaeus": 21610, "zur": 17924, "##economic": 23035, "##oni": 10698, "tobin": 28096, "diet": 8738, "lost": 2439, "shades": 13178, "nestor": 25397, "sammy": 14450, "marche": 28791, "##tzer": 29546, "##fer": 7512, "issuing": 15089, "nuevo": 22250, "ruse": 26307, "am": 2572, "popped": 10538, "edition": 3179, "harassment": 16011, "##laya": 22923, "belgrade": 10291, "occurrences": 27247, "transvaal": 28336, "##zquez": 22938, "##o": 2080, "fabulous": 18783, "wheeler": 12819, "geometridae": 24687, "\u0bbf": 1396, "waved": 7147, "lens": 10014, "ramon": 12716, "number": 2193, "johnson": 3779, "ranger": 11505, "clearly": 4415, "marquis": 13410, "communicating": 20888, "adversary": 27248, "##old": 11614, "improve": 5335, "equation": 8522, "sms": 22434, "ballet": 7250, "edges": 7926, "30": 2382, "[unused441]": 446, "\u03c7": 1177, "waterfalls": 24236, "##gren": 13565, "uniformed": 25189, "lister": 27177, "european": 2647, "alfredo": 19423, "[unused538]": 543, "establishing": 7411, "rosenthal": 29062, "intimidating": 24439, "fractures": 28929, "ambient": 17093, "copies": 4809, "##frid": 27439, "cw": 19296, "macintosh": 22228, "##bell": 17327, "\u90fd": 1961, "[unused928]": 933, "few": 2261, "meanwhile": 5564, "yamaha": 24031, "##\u0431": 29740, "##\u0936": 29872, "winston": 10180, "via": 3081, "hapoel": 24208, "##\u0458": 29761, "[unused497]": 502, "modeled": 14440, "memo": 24443, "haji": 28174, "\u0f60": 1433, "concession": 16427, "burrows": 22009, "apical": 29197, "entrances": 18084, "mischievous": 25723, "336": 27954, "donaldson": 23164, "~": 1066, "\u0baf": 1390, "hassan": 13222, "worlds": 8484, "populace": 22508, "streaks": 21295, "jiang": 20613, "##\u8ecd": 30481, "calls": 4455, "penny": 10647, "stay": 2994, "##\u056f": 29774, "herring": 22103, "##lists": 27103, "[unused383]": 388, "[unused929]": 934, "beef": 12486, "chronology": 17873, "fivb": 28423, "[unused622]": 627, "##\u27e9": 30156, "1860s": 15914, "##\u21a6": 30116, "##\u30c4": 30238, "##rger": 25858, "cheaper": 16269, "[unused636]": 641, "shuffled": 18764, "warmth": 8251, "get": 2131, "embedded": 11157, "arena": 5196, "attracted": 6296, "ucla": 12389, "leung": 26037, "johann": 8968, "evidently": 15329, "uncles": 27328, "hugs": 24459, "##bahn": 16052, "hospice": 29277, "747": 25374, "familiarity": 24666, "##inking": 29377, "heterosexual": 28229, "usaf": 18531, "receive": 4374, "wonderful": 6919, "##bino": 21891, "convinced": 6427, "brilliant": 8235, "##erved": 25944, "wielding": 26974, "1707": 25029, "\u0645": 1295, "bulldogs": 15120, "puff": 23893, "dorchester": 27252, "gospel": 8036, "struggling": 8084, "##ap": 9331, "criticizing": 21289, "##nsky": 25655, "bayer": 26367, "borders": 6645, "barnet": 26864, "reconcile": 21063, "[unused731]": 736, "testimony": 10896, "\u05ea": 1267, "calculate": 18422, "##st": 3367, "degradation": 16627, "##anta": 26802, "##tica": 22723, "[unused16]": 17, "heirs": 15891, "spa": 12403, "qi": 18816, "accounting": 9529, "round": 2461, "\u6771": 1879, "madame": 10602, "godfather": 23834, "##shan": 9688, "ft": 3027, "declare": 13520, "breast": 7388, "listeners": 13810, "adrenaline": 14963, "##ardo": 24649, "shenzhen": 26555, "convinces": 19480, "maccabi": 24055, "\u30b9": 1707, "females": 3801, "##\u674e": 30403, "patterns": 7060, "wen": 19181, "helmets": 22674, "doorway": 7086, "botswana": 19414, "committees": 9528, "fragment": 15778, "horse": 3586, "insisted": 7278, "releases": 7085, "convictions": 20488, "cricket": 4533, "displaying": 14962, "advises": 25453, "sits": 7719, "##ado": 9365, "figurative": 29407, "##anna": 25789, "##cion": 10446, "railways": 7111, "wentworth": 20572, "brooklyn": 6613, "##cles": 18954, "sq": 5490, "warehouses": 23319, "[unused496]": 501, "silver": 3165, "mammals": 11993, "[unused616]": 621, "katy": 17870, "1864": 6717, "##creen": 24410, "images": 4871, "sacked": 14159, "##\u767a": 30440, "##ved": 7178, "crossings": 20975, "broadly": 13644, "##rize": 25709, "lyric": 13677, "geologist": 21334, "##dity": 25469, "responds": 16412, "superficial": 23105, "softer": 19013, "[unused548]": 553, "red": 2417, "achieving": 10910, "punt": 18975, "255": 20637, "\u898b": 1948, "slim": 11754, "transformations": 21865, "##nni": 23500, "planets": 11358, "marseille": 16766, "qin": 19781, "gay": 5637, "grins": 20237, "kraft": 26680, "correction": 18140, "135": 11502, "[unused792]": 797, "convoys": 23083, "equal": 5020, "helmet": 10412, "costing": 22173, "fluffy": 27036, "nicky": 20158, "oder": 27215, "vows": 16495, "olive": 9724, "beats": 10299, "cadence": 23620, "cheered": 25471, "##via": 9035, "replica": 15059, "statutes": 18574, "hourly": 21462, "extraction": 14676, "208": 18512, "##and": 5685, "roundabout": 22831, "##selle": 19358, "daryl": 22514, "##otti": 21325, "jacob": 6213, "adjust": 14171, "boer": 19945, "nottinghamshire": 20126, "kazakhstan": 11769, "aisle": 12485, "nato": 10079, "##uven": 27346, "1900": 5141, "interlude": 25347, "cu": 12731, "persisted": 19035, "##zation": 9276, "shelter": 7713, "layers": 9014, "##lite": 22779, "141": 15471, "##gas": 12617, "##que": 4226, "##\u0435\u0432\u0438\u0447": 22646, "bce": 10705, "archbishop": 6507, "continuing": 5719, "stake": 8406, "[unused562]": 567, "suits": 11072, "gaping": 21226, "shack": 22200, "layton": 23103, "##\u3082": 30207, "revenge": 7195, "group": 2177, "28th": 15538, "playful": 18378, "abby": 9460, "##uder": 29190, "exists": 6526, "azores": 28320, "plaques": 28487, "defamation": 27652, "\u5fb7": 1848, "##lence": 22717, "technician": 16661, "ounce": 19471, "subunit": 24312, "comparable": 12435, "anarchy": 26395, "parent": 6687, "libre": 21091, "wheelbase": 29141, "proves": 16481, "bahamas": 17094, "courageous": 26103, "\u0e21": 1415, "##ience": 13684, "hostile": 10420, "rapids": 12775, "appoint": 16823, "aiding": 24791, "1997": 2722, "florian": 29517, "##zuka": 22968, "race": 2679, "prayers": 12583, "reject": 15454, "dir": 16101, "ign": 16270, "##ons": 5644, "luxury": 9542, "##rred": 20529, "utilize": 16462, "##ante": 12956, "discourage": 28085, "\u0ca8": 1400, "pharmaceutical": 13859, "ping": 17852, "airplane": 13297, "andre": 7213, "leaders": 4177, "##ement": 13665, "bundle": 14012, "\u2248": 1606, "a1": 17350, "bonuses": 29563, "again": 2153, "ukrainian": 5969, "soaking": 22721, "eye": 3239, "cavendish": 23570, "eras": 28500, "wild": 3748, "dynasties": 23014, "jain": 17136, "bwv": 23860, "##linson": 25051, "##oles": 29111, "jamaican": 17851, "ripped": 9157, "##ley": 3051, "expedition": 5590, "industrialist": 21691, "consecutive": 5486, "##\u1161": 30006, "algerian": 16953, "sovereign": 11074, "moose": 17716, "##\u00a6": 29649, "stamped": 20834, "memorandum": 20336, "speaking": 4092, "326": 28188, "workshop": 8395, "recital": 25521, "hitting": 7294, "hodges": 19772, "##rad": 12173, "levels": 3798, "eliminated": 5892, "county": 2221, "juice": 10869, "1717": 27525, "imagining": 16603, "bounds": 19202, "erratic": 24122, "mcgregor": 23023, "lunch": 6265, "taxon": 28521, "secrets": 7800, "batch": 14108, "tempered": 22148, "built": 2328, "exasperated": 24379, "favored": 12287, "demand": 5157, "bases": 7888, "##uru": 14129, "99": 5585, "##ph": 8458, "postwar": 20013, "slamming": 15209, "corps": 3650, "##9th": 25660, "##\u0142": 18818, "ceramics": 17314, "pitch": 6510, "briefcase": 21793, "wondered": 4999, "oblast": 10379, "universally": 21186, "\u2261": 1607, "kuala": 15490, "consulate": 19972, "volatile": 20606, "execution": 7781, "##ches": 8376, "operate": 5452, "concurrent": 16483, "##\u09a7": 29901, "southland": 29121, "##hide": 26100, "dissatisfaction": 28237, "litre": 16812, "##etti": 18319, "lancaster": 10237, "##wd": 21724, "gupta": 20512, "scheduled": 5115, "[unused295]": 300, "##ert": 8743, "##kulam": 28871, "charles": 2798, "informally": 21858, "vassal": 24351, "rain": 4542, "lcd": 27662, "##xton": 14226, "suppression": 16341, "musician": 5455, "##redo": 23417, "crossed": 4625, "##ime": 14428, "##apple": 23804, "feels": 5683, "43rd": 25747, "##\u2092": 30091, "swiped": 24452, "baha": 13253, "[unused553]": 558, "coco": 25033, "cheerleading": 25721, "##\u5343": 30310, "##\u30e5": 30255, "116": 12904, "floyd": 12305, "conversations": 11450, "##\u0250": 29676, "316": 23980, "[unused25]": 26, "convex": 18309, "mysterious": 8075, "churchyard": 19812, "customary": 16120, "regulates": 26773, "cutter": 16343, "delivers": 18058, "mallory": 20468, "##lz": 23858, "wits": 25433, "marlon": 25861, "muscle": 6740, "miraculous": 26106, "billings": 26124, "thrill": 16959, "condor": 29260, "philips": 19087, "##otted": 26174, "exiting": 22371, "##bir": 17706, "dickinson": 17590, "##\u2078": 30077, "uhf": 20131, "evidence": 3350, "roots": 6147, "sloppy": 28810, "whip": 11473, "seriousness": 27994, "##enity": 20693, "injured": 5229, "gladys": 22386, "communist": 4750, "burden": 10859, "nightly": 22390, "monopoly": 15404, "parkway": 12602, "wakefield": 16045, "hurrying": 27951, "dream": 3959, "\u30a6": 1696, "goes": 3632, "daphne": 16847, "tin": 9543, "##kara": 16566, "yuki": 24924, "m2": 25525, "tak": 27006, "aluminium": 14794, "sunken": 23470, "horsemen": 25431, "quake": 27785, "porte": 25927, "evelyn": 12903, "chopra": 28826, "flee": 10574, "rumored": 22710, "passes": 5235, "trauma": 12603, "explores": 15102, "##ein": 12377, "vidal": 29259, "##19": 16147, "##\u1d52": 30039, "death": 2331, "saturdays": 18860, "clermont": 27956, "reacted": 14831, "shelton": 22230, "[unused154]": 159, "wwf": 16779, "climatic": 27301, "##obe": 20891, "decidedly": 27873, "aberdeen": 12080, "inflicted": 17303, "liza": 20503, "drawn": 4567, "structure": 3252, "vikings": 13468, "encoded": 12359, "milky": 21582, "responses": 10960, "[unused703]": 708, "norma": 20692, "##nya": 17238, "joy": 6569, "sicilian": 22584, "##tly": 14626, "tracts": 22069, "assign": 23911, "##main": 24238, "performs": 10438, "cumbria": 25559, "wrenched": 26971, "voltage": 10004, "\u5408": 1792, "talents": 11725, "citizens": 4480, "streetcar": 21420, "players": 2867, "effectively": 6464, "alistair": 23752, "cancer": 4456, "[unused470]": 475, "legendary": 8987, "47": 4700, "negotiations": 7776, "mandate": 11405, "shipped": 12057, "inning": 12994, "hazel": 14015, "protestant": 8330, "killers": 15978, "boyfriend": 6898, "\u5b50": 1816, "1000": 6694, "drain": 12475, "##git": 23806, "##ego": 20265, "##sden": 27903, "crawley": 28854, "kincaid": 24510, "bull": 7087, "[unused930]": 935, "learned": 4342, "hunched": 20498, "obstacle": 18355, "enjoying": 9107, "patrols": 14703, "june": 2238, "burn": 6402, "sagged": 26719, "##ni": 3490, "spices": 21729, "friday": 5958, "whereabouts": 18913, "##\u092d": 29866, "1743": 25615, "admiralty": 14179, "oriented": 8048, "blackish": 22032, "##\u2020": 30061, "achievements": 10106, "excluding": 13343, "landon": 20642, "memorable": 13432, "bn": 24869, "owe": 12533, "##\u308d": 30215, "swam": 16849, "##pired": 21649, "##ports": 25378, "notably": 5546, "precisely": 10785, "1862": 6889, "gareth": 20243, "##ning": 5582, "anchored": 14453, "##grass": 19673, "1875": 7466, "began": 2211, "lopez": 8685, "sermons": 20855, "hemingway": 27299, "landau": 28570, "ensembles": 21528, "tier": 7563, "##\u0251": 29677, "ms": 5796, "sexes": 21024, "toes": 10393, "1761": 21364, "##bal": 10264, "playhouse": 17408, "fa": 6904, "##nberger": 28825, "41st": 24233, "province": 2874, "senegal": 16028, "uncredited": 8104, "##itis": 13706, "chorus": 7165, "##\u00b3": 18107, "##\u10d4": 29978, "solving": 13729, "flora": 10088, "lick": 15385, "explicit": 13216, "noses": 27518, "concacaf": 22169, "flinders": 29120, "shortened": 12641, "1658": 28944, "\u76ee": 1918, "carmel": 19443, "\u5742": 1803, "unemployment": 12163, "netflix": 20907, "95": 5345, "##going": 26966, "##bery": 22509, "objects": 5200, "sections": 5433, "tractor": 16358, "nasty": 11808, "##ancy": 11656, "napoleon": 8891, "codex": 15763, "brno": 28634, "unnoticed": 22719, "competitive": 6975, "##dman": 21804, "##rent": 22787, "ck": 23616, "\u0254": 1112, "marlins": 27055, "gothenburg": 22836, "reverse": 7901, "semitic": 20604, "statute": 11671, "ale": 15669, "flaws": 21407, "navarre": 21260, "israel": 3956, "projects": 3934, "##\u304d": 30178, "purchasing": 13131, "closeness": 28398, "borrowing": 23733, "arrival": 5508, "everybody": 7955, "keller": 16155, "green": 2665, "thence": 23166, "arizona": 5334, "revenue": 6599, "##anov": 25417, "2001": 2541, "##dly": 18718, "sofie": 26359, "artery": 16749, "flaps": 26570, "derive": 18547, "han": 7658, "businessmen": 17353, "##ga": 3654, "1787": 16057, "##\u56d7": 30323, "\u1162": 1471, "corsica": 27047, "spring": 3500, "global": 3795, "sprang": 15627, "testosterone": 25937, "barnard": 22266, "##growth": 26982, "banana": 15212, "vodka": 21092, "[unused275]": 280, "driving": 4439, "alfred": 6152, "bio": 16012, "dining": 7759, "affect": 7461, "##rous": 13288, "pull": 4139, "andreas": 12460, "cockpit": 13828, "##iciencies": 28227, "nasal": 19077, "mutant": 15527, "sylvia": 13378, "personal": 3167, "oceania": 20526, "stemming": 29217, "foster": 6469, "tottenham": 18127, "severn": 24753, "looming": 23430, "[unused920]": 925, "congregation": 7769, "exams": 13869, "hammer": 8691, "avenge": 24896, "sensitivity": 14639, "tory": 17117, "orders": 4449, "anyone": 3087, "\u04cf": 1218, "##lf": 10270, "kentucky": 5612, "##tail": 14162, "highness": 17114, "rot": 18672, "flirting": 20661, "neo": 9253, "slovene": 18326, "mammal": 25476, "eva": 9345, "fifth": 3587, "punches": 17957, "[unused845]": 850, "grabbing": 9775, "sentimental": 23069, "##\u9580": 30494, "giacomo": 22873, "wcw": 24215, "map": 4949, "netting": 26909, "molecule": 13922, "##inen": 21820, "##eria": 11610, "shark": 11420, "\u044e": 1209, "excursion": 26144, "withstand": 19319, "obliged": 14723, "bomb": 5968, "nominally": 24207, "##ls": 4877, "##neer": 19755, "regions": 4655, "ben": 3841, "fifa": 5713, "offering": 5378, "[unused320]": 325, "dynamo": 17205, "##vet": 19510, "\u1d50": 1502, "garfield": 20170, "shotgun": 13305, "equally": 8053, "rituals": 13549, "anglican": 9437, "opened": 2441, "sexually": 12581, "luftwaffe": 17740, "celebrations": 12035, "veracruz": 23741, "##xa": 18684, "overcame": 26463, "tits": 25671, "lisa": 7059, "crate": 27297, "conclusions": 15306, "mothers": 10756, "[unused13]": 14, "[unused76]": 77, "assistance": 5375, "\u1161": 1470, "jumped": 5598, "wreck": 12006, "much": 2172, "##quil": 26147, "##ington": 7853, "joo": 28576, "##uez": 29488, "marquez": 27320, "houghton": 21234, "\u2ebc": 1633, "\u0bc1": 1397, "jagged": 18187, "barron": 23594, "##hen": 10222, "city": 2103, "fringe": 13548, "na": 6583, "townland": 23635, "triangle": 9546, "about": 2055, "ignores": 26663, "balancing": 20120, "laughing": 5870, "bewildered": 24683, "weights": 15871, "madagascar": 11934, "reissue": 17173, "knees": 5042, "\u09a8": 1366, "##upt": 29441, "##down": 7698, "hand": 2192, "##adan": 26335, "arab": 5424, "watts": 11042, "declaring": 13752, "##cation": 10719, "celine": 24550, "enlisted": 9417, "confusing": 16801, "monograph": 24039, "slaves": 7179, "mae": 11530, "tones": 12623, "barge": 19398, "##\u1d50": 30038, "hormones": 20752, "radcliffe": 22603, "walled": 17692, "##tis": 7315, "evolutionary": 12761, "ia": 24264, "destruction": 6215, "##lary": 28221, "selfish": 14337, "##moor": 17622, "vishnu": 17647, "liechtenstein": 26500, "communal": 15029, "##*": 29621, "interfering": 24324, "##building": 25820, "vial": 28475, "combat": 4337, "lyrical": 16376, "##\u0292": 29704, "werewolves": 18306, "cornice": 27848, "compose": 17202, "##uw": 25974, "planned": 3740, "paste": 19351, "1634": 28502, "blouse": 18149, "subdued": 20442, "assured": 8916, "researcher": 10753, "submerged": 13563, "11": 2340, "blame": 7499, "##rf": 12881, "shale": 18488, "guests": 6368, "##ct": 6593, "bounce": 17523, "##icz": 18682, "snails": 13482, "certificates": 17987, "##lea": 19738, "marley": 20326, "##terol": 27833, "evenings": 16241, "[unused158]": 163, "trough": 23389, "renowned": 8228, "fernando": 9158, "eventual": 9523, "[unused773]": 778, "appreciation": 12284, "recruit": 13024, "stranger": 7985, "galilee": 28928, "##ou": 7140, "roam": 25728, "[unused949]": 954, "employed": 4846, "suspected": 6878, "##op": 7361, "height": 4578, "obviously": 5525, "[unused568]": 573, "unreliable": 23579, "auburn": 12704, "rugby": 4043, "daly": 18509, "1796": 13885, "nationalism": 14594, "##ram": 6444, "jaguars": 24017, "##tte": 4674, "glaciers": 21193, "striped": 17983, "bites": 15424, "dough": 23126, "shire": 13182, "1716": 28204, "jonny": 26937, "##maker": 8571, "##rrick": 24999, "blasted": 18461, "ting": 28642, "raceway": 23018, "abolitionist": 29554, "keane": 27228, "##rts": 21217, "viet": 19710, "\u2660": 1623, "visas": 24487, "confessed": 14312, "declining": 13993, "noir": 15587, "yours": 6737, "linguist": 22978, "cheltenham": 18763, "vault": 11632, "##some": 14045, "730": 28004, "ptolemy": 23517, "sequel": 8297, "kaladin": 22588, "##ented": 14088, "miranda": 9392, "communications": 4806, "darwin": 11534, "typed": 21189, "mitchell": 6395, "gasoline": 13753, "reality": 4507, "maryland": 5374, "yao": 23711, "saetan": 23515, "helplessly": 24942, "situations": 8146, "govt": 22410, "aimed": 6461, "pang": 20657, "realised": 11323, "bartholomew": 19866, "##hn": 7295, "##flight": 28968, "vane": 23334, "##sser": 18116, "coded": 22402, "glad": 5580, "radar": 7217, "\u05e5": 1262, "##ulating": 10924, "willing": 5627, "measures": 5761, "[unused52]": 53, "protect": 4047, "tweed": 26922, "nyc": 16392, "pinning": 22866, "plaintiffs": 23953, "slower": 12430, "\u6728": 1875, "##bla": 28522, "bridge": 2958, "turbulence": 29083, "tight": 4389, "lounge": 11549, "patti": 22732, "herds": 28822, "tanaka": 21829, "hide": 5342, "lakers": 18264, "commissioning": 21612, "unlawful": 22300, "dimensions": 9646, "redesign": 25136, "claus": 19118, "palo": 24326, "international": 2248, "productivity": 15836, "planted": 8461, "socialist": 6102, "##8": 2620, "##del": 9247, "facility": 4322, "cia": 9915, "brady": 10184, "##way": 4576, "fossil": 10725, "redemption": 18434, "call": 2655, "[unused182]": 187, "beforehand": 25828, "##dian": 11692, "assimilation": 27574, "##lto": 23223, "theatrical": 8900, "swami": 20087, "staircase": 10714, "##grate": 22780, "##lization": 22731, "household": 4398, "patronage": 15694, "##uke": 15851, "mantra": 25951, "##ental": 21050, "##\u22c5": 30141, "[unused875]": 880, "accompany": 12673, "@": 1030, "##nko": 16107, "gunpowder": 22220, "\u222a": 1605, "##ry": 2854, "engineer": 3992, "hats": 16717, "oyster": 21480, "##dation": 20207, "whilst": 5819, "wounds": 8710, "siam": 25583, "\u5341": 1783, "23": 2603, "##zhou": 9791, "appalachian": 19682, "chatting": 22331, "has": 2038, "##meter": 22828, "crust": 19116, "barcelona": 7623, "textiles": 18762, "##eves": 23047, "spontaneous": 17630, "anticipating": 26481, "disciplined": 28675, "discontent": 27648, "differ": 11234, "colts": 14390, "hamburger": 24575, "##group": 17058, "1720": 23535, "still": 2145, "##pkins": 29531, "cores": 25562, "choice": 3601, "floral": 18686, "bargaining": 21990, "##mba": 11201, "##tted": 16190, "corner": 3420, "##cede": 22119, "claudio": 19569, "oven": 17428, "[unused166]": 171, "gathering": 7215, "50": 2753, "apparently": 4593, "hilt": 21184, "hearted": 18627, "##vating": 26477, "bologna": 14102, "laughter": 7239, "consideration": 9584, "possibility": 6061, "lateral": 11457, "involvement": 6624, "v": 1058, "[unused747]": 752, "laundry": 14533, "##iving": 14966, "du": 4241, "chunk": 20000, "lip": 5423, "solitude": 22560, "surreal": 16524, "grotesque": 27707, "\u06ba": 1306, "archipelago": 13888, "327": 28469, "allow": 3499, "pigeons": 27567, "milling": 22491, "tears": 4000, "##brook": 9697, "passages": 13768, "vulnerability": 18130, "pigs": 14695, "resolutions": 18853, "##rsa": 22381, "richer": 26108, "wells": 7051, "2002": 2526, "clubhouse": 22067, "\u2297": 1613, "\u6238": 1857, "leather": 5898, "screens": 12117, "##west": 19650, "##river": 24352, "injunction": 22928, "responding": 14120, "storylines": 22628, "cult": 8754, "##\u30b5": 30231, "commissioned": 4837, "yearning": 29479, "dry": 4318, "239": 23688, "washing": 12699, "jae": 22770, "raw": 6315, "parc": 27985, "perceptions": 23271, "wetlands": 16630, "##100": 18613, "pairs": 7689, "imitation": 20017, "prick": 24858, "earls": 27371, "infectious": 16514, "cuffs": 24347, "##lika": 25421, "##print": 16550, "##ntino": 25318, "wilkins": 22745, "racer": 14878, "junior": 3502, "abnormalities": 28828, "##bled": 23242, "situated": 4350, "plain": 5810, "##rated": 9250, "isabel": 11648, "[unused449]": 454, "julie": 7628, "sichuan": 20980, "##alla": 25425, "westminster": 9434, "##rest": 28533, "\u767d": 1915, "songs": 2774, "prosecuted": 21651, "wheeling": 29142, "hyderabad": 13624, "cop": 8872, "pin": 9231, "seems": 3849, "somalia": 14717, "\u570b": 1800, "charcoal": 18872, "\u0449": 1204, "editions": 6572, "emerald": 14110, "abduction": 23415, "translate": 17637, "##gun": 12734, "##eed": 13089, "mortals": 23844, "[unused67]": 68, "aleksandr": 24020, "##kat": 24498, "computers": 7588, "informant": 28694, "##\u0438": 10325, "diplomat": 11125, "##sworth": 12255, "bouncing": 16361, "\u1da0": 1512, "heavens": 17223, "sites": 4573, "overseeing": 19642, "only": 2069, "thoughtful": 16465, "twilight": 13132, "##dora": 24562, "[unused545]": 550, "##ity": 3012, "fontana": 27182, "smaller": 3760, "kurt": 9679, "differential": 11658, "[unused31]": 32, "[unused424]": 429, "theologian": 17200, "poets": 9736, "corpus": 13931, "##minating": 27932, "verdi": 20580, "mongol": 17450, "##estinal": 19126, "aiden": 15086, "##erty": 15010, "replacement": 6110, "dwelling": 13160, "express": 4671, "oscar": 7436, "megan": 12756, "bridget": 19218, "##tov": 26525, "docks": 15093, "##mona": 21781, "valued": 11126, "##lita": 27606, "stucco": 27443, "pilot": 4405, "##cross": 16458, "##ibar": 26656, "approval": 6226, "counters": 24094, "sleeper": 24372, "interception": 17385, "appealed": 12068, "back": 2067, "a2": 22441, "monica": 9018, "giant": 5016, "thomas": 2726, "malibu": 29047, "distributed": 5500, "sings": 10955, "ally": 9698, "clair": 17936, "metropolis": 18236, "##tablished": 28146, "lowers": 24950, "lease": 10084, "bison": 22285, "[unused431]": 436, "kellogg": 26129, "keyboards": 6269, "squash": 18794, "indira": 28232, "soluble": 24345, "bed": 2793, "simultaneously": 7453, "dana": 11271, "collector": 10018, "junction": 5098, "succeed": 9510, "1926": 4881, "##ania": 13241, "bengals": 23227, "##liffe": 27931, "para": 11498, "pasadena": 18880, "selection": 4989, "kannada": 13873, "prisons": 15996, "shiny": 12538, "burgess": 17754, "xander": 29019, "levant": 24485, "master": 3040, "settle": 7392, "skirts": 18184, "##wine": 21924, "genre": 6907, "caused": 3303, "homestead": 14473, "stool": 14708, "rotary": 16933, "##brand": 23544, "dixie": 18910, "##ex": 10288, "inuit": 25179, "##pped": 11469, "cork": 8513, "provence": 19923, "fees": 9883, "min": 8117, "workings": 24884, "##chu": 20760, "xvi": 16855, "shafts": 20542, "parade": 7700, "alex": 4074, "shape": 4338, "wedding": 5030, "flirt": 27978, "setting": 4292, "asahi": 29465, "##urities": 29366, "\u09b8": 1376, "wherever": 11210, "\u4e8b": 1751, "creditors": 23112, "sad": 6517, "tor": 17153, "pass": 3413, "abusive": 20676, "\u0279": 1125, "repression": 22422, "##\u09b0": 29908, "observe": 11949, "/": 1013, "psychic": 12663, "anton": 9865, "apologize": 12134, "watt": 15231, "mental": 5177, "redistribution": 25707, "colliery": 19462, "##\u98df": 30504, "austrian": 6161, "cinematographer": 19245, "preservation": 8347, "hooked": 13322, "147": 16471, "guthrie": 19952, "commemoration": 22377, "milford": 22622, "##iner": 26455, "sigismund": 26748, "satellites": 14549, "cruising": 22206, "##\u0679": 29838, "writer": 3213, "elaborated": 25187, "\u0925": 1324, "pali": 28619, "faith": 4752, "mill": 4971, "stony": 16104, "motionless": 19917, "##dberg": 25190, "fighter": 4959, "##rled": 27501, "##blood": 26682, "fantasies": 21233, "ellis": 8547, "tore": 9538, "##01": 24096, "##nosis": 27109, "rap": 9680, "reprinted": 13603, "stroking": 14943, "prematurely": 28179, "##31": 21486, "witch": 6965, "ventura": 21151, "##\u0906": 29848, "lasted": 6354, "##fish": 7529, "##\u09a8": 29902, "##3d": 29097, "waived": 16301, "project": 2622, "kaye": 23686, "supplementary": 26215, "cells": 4442, "breeding": 8119, "jacksonville": 13057, "hymn": 14825, "##rned": 21119, "pumps": 15856, "lightning": 7407, "navigation": 9163, "##haus": 13821, "adequate": 11706, "129": 14378, "##ments": 8163, "sans": 20344, "ethiopia": 11154, "##drich": 23335, "##rret": 27032, "##\u05d3": 29791, "driver": 4062, "cleaned": 12176, "wipe": 13387, "##dial": 27184, "each": 2169, "##\u5bae": 30350, "remington": 25282, "fluttered": 18360, "poverty": 5635, "fair": 4189, "pets": 18551, "fatally": 26292, "educators": 19156, "##ok": 6559, "bulbs": 25548, "321": 24030, "lizard": 15450, "deborah": 15555, "blue": 2630, "hardwood": 23165, "nara": 27544, "##\u025b": 29275, "wroc\u0142aw": 25160, "1894": 6539, "textile": 12437, "bauer": 17838, "specimen": 11375, "middle": 2690, "\u00bb": 1090, "##\u03bd": 16177, "restrict": 21573, "redwood": 27552, "lazy": 13971, "##lter": 21928, "[unused694]": 699, "request": 5227, "condo": 25805, "inscriptions": 12920, "occurred": 4158, "choreographed": 23317, "##zed": 5422, "journalist": 4988, "baseman": 18038, "##itative": 29293, "tilting": 21788, "##ading": 23782, "##ishing": 21837, "[unused422]": 427, "##ente": 15781, "##right": 15950, "crusader": 25237, "worthy": 11007, "nope": 16780, "blockade": 15823, "assessed": 14155, "mustache": 28786, "simon": 4079, "soft": 3730, "depth": 5995, "57th": 28623, "jessie": 10934, "murray": 6264, "poison": 9947, "centimeters": 18119, "deliberately": 9969, "sophomore": 13758, "\u524d": 1776, "jets": 9924, "since": 2144, "valley": 3028, "[unused117]": 122, "glider": 18788, "moral": 7191, "nate": 8253, "fascination": 18987, "solos": 24339, "##nic": 8713, "produced": 2550, "heraldic": 28867, "combustion": 16513, "##7th": 27506, "conspiracy": 9714, "gaming": 10355, "exaggerated": 16903, "abbey": 6103, "mart": 20481, "tuned": 15757, "##lp": 14277, "munitions": 21061, "samson": 18375, "warlord": 16579, "ortega": 25859, "1683": 27414, "parasitic": 26045, "creativity": 14842, "cookies": 16324, "preparation": 7547, "knox": 11994, "nirvana": 26530, "telecom": 18126, "##\u03b1": 14608, "irs": 25760, "[unused136]": 141, "winslow": 26600, "gwen": 11697, "grasses": 21620, "reasoned": 24557, "##mit": 22930, "purpose": 3800, "optional": 11887, "\u0435": 1185, "1754": 22593, "websites": 11744, "##uer": 13094, "##tma": 29418, "crawford": 10554, "sonar": 24609, "dover": 13985, "[unused796]": 801, "quo": 22035, "investments": 10518, "enthusiasm": 12024, "links": 6971, "ate": 8823, "materials": 4475, "penelope": 18641, "paternal": 15112, "##pole": 15049, "cigarettes": 15001, "davey": 20436, "larkin": 25570, "exodus": 16388, "richie": 14411, "blasts": 25829, "summon": 18654, "##rri": 18752, "hood": 7415, "pantry": 27796, "cpc": 28569, "seventies": 26232, "elsie": 24603, "exam": 11360, "ir": 20868, "tooth": 11868, "flashback": 21907, "pena": 19409, "compete": 5566, "mine": 3067, "##llus": 20159, "##aer": 27867, "\u2030": 1530, "eighth": 5964, "bonfire": 28698, "##rno": 19139, "independence": 4336, "\u00bd": 1092, "injuries": 6441, "assigns": 24022, "retailers": 16629, "satisfied": 8510, "##ticus": 29587, "empires": 23560, "persons": 5381, "lacrosse": 13488, "disturbing": 14888, "enhancement": 22415, "##anger": 25121, "piedmont": 18873, "bald": 13852, "##eng": 13159, "black": 2304, "runes": 29161, "flinch": 23224, "##bers": 17198, "note": 3602, "clit": 17962, "qb": 26171, "build": 3857, "maxim": 20446, "accusing": 16723, "faltered": 26015, "lengthy": 12401, "participated": 4194, "excavation": 16456, "##85": 27531, "biker": 28988, "##bbe": 19473, "brandon": 8825, "##bilis": 27965, "mathematics": 5597, "stage": 2754, "introduce": 8970, "robbie": 12289, "##asa": 16782, "sash": 24511, "bolivia": 11645, "##aging": 16594, "originate": 21754, "uruguayan": 23464, "sniper": 17515, "##zzo": 12036, "317": 26628, "hearing": 4994, "verdict": 14392, "pick": 4060, "tomb": 8136, "loses": 12386, "werner": 14121, "holocaust": 11513, "cummings": 20750, "##\u6211": 30381, "gossip": 13761, "##vana": 27313, "\u53e3": 1788, "[unused900]": 905, "\u0928": 1327, "perpetual": 18870, "harta": 26283, "growing": 3652, "corinne": 26879, "[unused798]": 803, "\u03c6": 1176, "instructor": 9450, "facilitating": 25505, "vol": 5285, "outlines": 22106, "subdistrict": 24150, "##biology": 21685, "commander": 3474, "pot": 8962, "opted": 12132, "paolo": 14174, "huntington": 16364, "lucian": 18218, "chevalier": 22019, "mikhail": 11318, "permits": 14245, "##ake": 13808, "\u0642": 1292, "##sari": 22740, "##\u03c6": 29736, "drifting": 15013, "helps": 7126, "twigs": 27964, "ashok": 28916, "obligations": 14422, "provide": 3073, "distinguishing": 20852, "##\u4ee3": 30286, "paperback": 13611, "brit": 28101, "claimed": 3555, "advocacy": 12288, "bernhard": 21432, "embankment": 22756, "\u05e3": 1260, "character": 2839, "arthur": 4300, "cinder": 29399, "##\u0bbe": 29931, "[unused396]": 401, "critically": 11321, "practice": 3218, "sketches": 12741, "##\u10d8": 29981, "hon": 10189, "[unused308]": 313, "ballads": 18456, "forte": 24898, "shoved": 7468, "smeared": 25400, "or": 2030, "circuits": 13782, "colonel": 4327, "livestock": 11468, "pcs": 27019, "patrol": 6477, "##mina": 22311, "##atz": 20501, "##oes": 22504, "##\u0281": 29694, "610": 19827, "heiress": 20020, "\u1d4d": 1500, "grasp": 10616, "phosphate": 17344, "demonstrating": 14313, "drum": 6943, "gardiner": 21143, "##icate": 24695, "unacceptable": 21873, "wired": 17502, "negotiated": 13630, "canning": 24549, "normandy": 13298, "bathrooms": 28942, "condemnation": 26248, "billion": 4551, "##ham": 3511, "norwood": 22804, "catalina": 22326, "girl": 2611, "earth": 3011, "glitter": 27566, "rainforest": 18951, "prelude": 19508, "cleanup": 27686, "radicals": 23618, "inspection": 10569, "\u3086": 1683, "invaded": 10836, "##ola": 6030, "dick": 5980, "##lices": 29146, "pga": 14198, "selections": 16310, "occurring": 10066, "compliance": 12646, "halted": 12705, "directory": 14176, "myths": 17218, "[unused870]": 875, "##gation": 12540, "anymore": 4902, "##ub": 12083, "unanimously": 15645, "moreno": 17921, "##wani": 29092, "emission": 15760, "##stic": 10074, "adi": 27133, "\u03b3": 1157, "through": 2083, "spain": 3577, "you": 2017, "54th": 29570, "##\u2014": 30052, "[unused626]": 631, "comedic": 21699, "##ative": 8082, "noah": 7240, "utc": 11396, "farmland": 16439, "1644": 23477, "sequential": 25582, "##\u6771": 30405, "stung": 19280, "[unused54]": 55, "##ini": 5498, "word": 2773, "##lar": 8017, "casual": 10017, "well": 2092, "obtain": 6855, "biographer": 17121, "disturbed": 12491, "[unused519]": 524, "legislator": 22964, "fjord": 26158, "##tidae": 21861, "thrilled": 16082, "experimentation": 21470, "ryan": 4575, "hamlets": 21631, "mathew": 25436, "reasons": 4436, "##izes": 10057, "##entes": 26933, "sniffing": 27646, "ducked": 13781, "acquiring": 13868, "##tead": 14565, "asserts": 19514, "[unused3]": 4, "##orio": 27416, "several": 2195, "900": 7706, "ieee": 15368, "influence": 3747, "dave": 4913, "temporary": 5741, "sane": 22856, "develop": 4503, "awakening": 16936, "magic": 3894, "rq": 28134, "basel": 14040, "ezra": 16245, "##\u05d4": 29128, "\u043e": 1193, "unpredictable": 21446, "##cp": 21906, "iii": 3523, "##ctive": 15277, "haryana": 23261, "mace": 19382, "learners": 26262, "coping": 27520, "feast": 9831, "hummed": 26747, "pursue": 7323, "danielle": 18490, "april": 2258, "##im": 5714, "hepatitis": 28389, "1828": 11517, "machine": 3698, "theaters": 12370, "sustain": 15770, "dharma": 20669, "\u0575": 1230, "barn": 8659, "pianist": 9066, "##cast": 10526, "##diment": 21341, "parole": 17393, "##raya": 29539, "\uff01": 1986, "h": 1044, "becca": 22140, "publish": 10172, "zion": 19999, "vowel": 12710, "defences": 16828, "horizon": 9154, "##linger": 23101, "\u5bbf": 1826, "josephine": 16117, "continual": 27222, "suzy": 28722, "sickness": 15556, "johnny": 5206, "olympian": 25977, "tri": 13012, "sorted": 19616, "flea": 26735, "equations": 11380, "##mail": 21397, "##unas": 23904, "correctional": 20873, "modular": 19160, "##lee": 10559, "basement": 8102, "\u306c": 1669, "closure": 8503, "##lves": 20899, "claire": 6249, "detachments": 29568, "settlers": 7322, "sampson": 22041, "wadi": 28380, "les": 4649, "##bil": 14454, "\u2080": 1547, "astonishing": 26137, "strips": 12970, "stakes": 7533, "jerking": 22387, "##kong": 25460, "\u05d1": 1242, "aloud": 12575, "##ulus": 11627, "[unused777]": 782, "chasing": 11777, "emi": 12495, "molten": 23548, "justified": 15123, "##gration": 29397, "marta": 18950, "night": 2305, "attached": 4987, "beaten": 7854, "rue": 13413, "presentation": 8312, "dresses": 14464, "weed": 17901, "announcing": 13856, "tactical": 8608, "judaism": 13725, "translucent": 22897, "declares": 18806, "align": 25705, "affects": 13531, "bc": 4647, "##gos": 12333, "##him": 14341, "##mani": 20799, "forget": 5293, "6000": 25961, "preparations": 12929, "lasts": 16180, "##zing": 6774, "luisa": 25412, "unfit": 29439, "curves": 10543, "casey": 9036, "turmoil": 17930, "tumors": 21434, "coffin": 13123, "\u5b87": 1819, "##rries": 26801, "##gu": 12193, "bike": 7997, "mckinley": 22121, "blush": 16688, "ineffective": 20694, "##\u4ecb": 30285, "roderick": 28326, "##mmel": 29033, "territorial": 7894, "administer": 21497, "?": 1029, "bags": 8641, "berlin": 4068, "flickered": 15999, "surveillance": 9867, "equipped": 6055, "developmental": 13908, "##film": 23665, "measure": 5468, "oak": 6116, "envisioned": 18035, "explosions": 18217, "##cing": 6129, "male": 3287, "pupil": 11136, "ching": 19992, "boiled": 17020, "##t": 2102, "##inge": 23496, "degrees": 5445, "drafts": 28967, "proper": 5372, "restored": 5854, "burgundy": 18383, "longing": 15752, "consistently": 10862, "[unused123]": 128, "thai": 7273, "drawings": 9254, "bum": 26352, "struggles": 11785, "smack": 21526, "jihad": 24815, "ff": 21461, "limestone": 9771, "blogger": 28205, "[unused248]": 253, "1730": 23272, "engaged": 5117, "[unused231]": 236, "tehran": 13503, "prophets": 23172, "270": 13756, "rust": 18399, "ghosts": 11277, "long": 2146, "##\u0bbf": 29932, "##ship": 9650, "hague": 14575, "##bah": 24206, "twinkle": 29038, "covers": 4472, "electronic": 4816, "tune": 8694, "operative": 12160, "scots": 12196, "\u060c": 1268, "arlington": 13929, "pe": 21877, "matteo": 24713, "complexity": 11619, "shapiro": 24630, "##uma": 12248, "jerked": 8245, "[unused348]": 353, "[unused531]": 536, "professionally": 12145, "##ahu": 21463, "their": 2037, "salaries": 20566, "##mg": 24798, "illegally": 17800, "##\u20a9": 30101, "alyssa": 26442, "[unused179]": 184, "sci": 16596, "horrific": 23512, "steamship": 23869, "even": 2130, "[unused810]": 815, "superliga": 25922, "ich": 22564, "recover": 8980, "median": 3991, "reconciliation": 16088, "[unused43]": 44, "##hal": 8865, "jase": 18626, "##dden": 17101, "67": 6163, "81": 6282, "cipher": 27715, "##strel": 26877, "von": 3854, "naming": 10324, "##umen": 27417, "[unused816]": 821, "conglomerate": 22453, "##rage": 24449, "wainwright": 25305, "209": 19348, "1690": 24765, "drives": 9297, "aimee": 23551, "twists": 21438, "phillips": 8109, "submissions": 27842, "##elli": 13348, "loop": 7077, "[unused688]": 693, "\u4e16": 1745, "faster": 5514, "##holders": 17794, "customer": 8013, "bound": 5391, "60th": 20928, "1940s": 7675, "1770": 17711, "304": 23859, "##wana": 21761, "reaching": 4285, "samuel": 5212, "##irus": 26013, "##gingly": 28392, "requirements": 5918, "tuck": 18029, "[unused804]": 809, "abandoned": 4704, "gotta": 10657, "trend": 9874, "ended": 3092, "##rup": 21531, "##mund": 25574, "gloss": 27068, "##fied": 10451, "##shaw": 17980, "backward": 8848, "mentally": 10597, "olds": 19457, "##rth": 15265, "gabe": 12900, "##pton": 15857, "\u7592": 1913, "bias": 13827, "##gil": 20142, "electrical": 5992, "watford": 21740, "valuation": 26004, "airship": 27636, "masjid": 27779, "exhaled": 16242, "##wari": 20031, "resisting": 22363, "fiance": 19154, "poke": 26202, "mint": 12927, "marks": 6017, "##smo": 25855, "spokesman": 14056, "relegation": 9591, "cocky": 24995, "\u7530": 1911, "compromise": 12014, "##tative": 27453, "chapel": 4970, "rochdale": 26109, "cambodian": 24417, "indirect": 14958, "1880": 6756, "##tek": 23125, "borneo": 15688, "suburban": 9282, "jd": 26219, "alphabet": 12440, "##ret": 13465, "paralympics": 15600, "##imum": 28591, "pierce": 9267, "geographical": 10056, "266": 25162, "castle": 3317, "##sier": 20236, "##ppe": 21512, "executives": 12706, "lacked": 10858, "cola": 15270, "falcons": 14929, "player": 2447, "societal": 23382, "goal": 3125, "##kle": 19099, "uttered": 20947, "entertained": 21474, "trombone": 13914, "modernization": 20181, "clandestine": 24450, "pillar": 14809, "##fide": 20740, "breeze": 9478, "##\u0646": 15915, "rye": 20926, "carleton": 22273, "eki": 23174, "funnel": 25102, "##illo": 10486, "rounding": 26939, "target": 4539, "scheme": 5679, "fay": 23201, "\u201d": 1524, "excerpt": 28142, "##\u8a9e": 30476, "##\u4e09": 30267, "ensued": 18942, "bogota": 21240, "penguins": 18134, "\u2208": 1596, "comes": 3310, "2000": 2456, "vaudeville": 19698, "[unused468]": 473, "lorraine": 13895, "quartet": 8530, "ranged": 15844, "harold": 7157, "comparisons": 18539, "instance": 6013, "legged": 15817, "##ses": 8583, "tchaikovsky": 25900, "##zell": 24085, "pedestrians": 24946, "granville": 24926, "arranged": 5412, "associates": 9228, "attacking": 7866, "sui": 24086, "strongest": 10473, "flights": 7599, "compare": 12826, "quincy": 16141, "backseat": 19978, "consequently": 8821, "confirm": 12210, "romanized": 7651, "credentials": 22496, "1907": 5528, "hypothesis": 10744, "bu": 20934, "[unused941]": 946, "elite": 7069, "earthquakes": 17932, "radio": 2557, "glowing": 10156, "seam": 25180, "abolished": 8961, "loire": 20399, "airs": 14369, "kat": 10645, "austro": 16951, "offender": 25042, "[unused790]": 795, "discharge": 11889, "##nd": 4859, "threatening": 8701, "cc": 10507, "economists": 22171, "381": 29335, "##cton": 28312, "altitudes": 21973, "##kin": 4939, "collaborating": 20295, "##ott": 14517, "greaves": 27808, "staggered": 14648, "waldo": 28806, "nat": 14085, "estimates": 10035, "sf": 16420, "ventral": 23420, "##eger": 26320, "neurons": 15698, "vibration": 17880, "covent": 29456, "ritchie": 20404, "joke": 8257, "allmusic": 10477, "fumbled": 20054, "chests": 28717, "unlike": 4406, "microscope": 24635, "vector": 9207, "cong": 26478, "\u00bc": 1091, "##ffen": 18032, "egyptian": 6811, "osman": 28609, "1651": 29077, "fearing": 14892, "unfamiliar": 16261, "riverside": 12497, "awkwardly": 18822, "##hini": 20535, "known": 2124, "subsidy": 28768, "branding": 16140, "lebanon": 8341, "confessions": 21444, "liga": 8018, "1816": 12357, "indexed": 25331, "[unused336]": 341, "graded": 21976, "administrations": 27722, "puerto": 5984, "sewing": 22746, "##qi": 14702, "manned": 15371, "feng": 19004, "wrought": 18481, "wilder": 18463, "##aldo": 27318, "utopia": 26425, "splits": 19584, "[unused402]": 407, "[unused517]": 522, "asia": 4021, "peel": 14113, "snatched": 14177, "[unused35]": 36, "namesake": 17283, "nh": 18699, "##yp": 22571, "##gle": 9354, "corresponds": 14788, "compressor": 29329, "\u094b": 1343, "##jas": 17386, "paving": 28007, "deserts": 28858, "##qu": 28940, "gig": 15453, "ownership": 6095, "overland": 21400, "##edance": 29605, "highest": 3284, "rebellion": 7417, "teens": 13496, "vanderbilt": 17066, "nervously": 12531, "##enburg": 12059, "mcdonald": 9383, "symphonic": 18957, "##tick": 26348, "softly": 5238, "olivier": 14439, "[unused91]": 92, "##rre": 14343, "canons": 21975, "sheldon": 19369, "growl": 13349, "fame": 4476, "technology": 2974, "bernie": 15941, "nunez": 28454, "332": 29327, "snarled": 15022, "youths": 19634, "##rang": 24388, "awarding": 21467, "thankfully": 16047, "ralph": 6798, "##osa": 8820, "stockton": 19161, "serge": 21747, "assumes": 15980, "##omp": 25377, "relocation": 18344, "##ard": 4232, "gin": 18353, "raj": 11948, "outraged": 23558, "vapor": 20064, "everyone": 3071, "\u11a8": 1484, "##chio": 23584, "martins": 19953, "emotions": 6699, "kyrgyzstan": 23209, "##das": 8883, "insulted": 23637, "jc": 29175, "fronts": 21430, "mann": 10856, "[unused349]": 354, "##nl": 20554, "##gard": 13444, "selecting": 17739, "73": 6421, "kenji": 25894, "constraint": 27142, "spends": 15970, "violation": 11371, "difficult": 3697, "##rland": 18324, "rhineland": 21640, "sited": 28603, "##dog": 16168, "potential": 4022, "academy": 2914, "##\u0268": 29684, "}": 1065, "zinc": 15813, "peters": 12420, "mohamed": 14467, "favoured": 16822, "nut": 17490, "arcadia": 25178, "withdrawing": 21779, "##yuan": 17236, "hari": 21291, "460": 17267, "coloured": 11401, "rag": 17768, "criticised": 10648, "routing": 16972, "clashed": 22600, "genius": 11067, "maestro": 25270, "##uria": 27703, "presenting": 10886, "labs": 13625, "surpassed": 15602, "electric": 3751, "tubes": 10868, "clicked": 13886, "boxed": 27554, "rave": 23289, "chain": 4677, "[unused761]": 766, "securing": 12329, "joanne": 23459, "deputies": 11964, "##koto": 24886, "##rg": 10623, "environment": 4044, "starts": 4627, "racks": 27259, "disappears": 17144, "perspective": 7339, "litigation": 15382, "##0s": 16223, "grasping": 20854, "##\u091c": 29855, "##ra": 2527, "##pol": 18155, "undertake": 16617, "necks": 26082, "\u0272": 1123, "eduardo": 14846, "casinos": 27300, "##orro": 29459, "log": 8833, "302": 22060, "##66": 28756, "\u6f22": 1904, "acc": 16222, "neill": 11511, "grand": 2882, "connected": 4198, "thighs": 9222, "ramsay": 19460, "relational": 28771, "batted": 12822, "backstroke": 28373, "[unused19]": 20, "##raus": 25965, "praising": 15838, "exterior": 8829, "apron": 20376, "##aki": 8978, "[unused670]": 675, "ants": 16111, "messages": 7696, "hume": 20368, "butcher": 14998, "danny": 6266, "papyrus": 29575, "\u0639": 1288, "dear": 6203, "cinnamon": 21229, "\u3093": 1691, "[unused174]": 179, "hailed": 16586, "commence": 22825, "philadelphia": 4407, "gaze": 3657, "un": 4895, "89": 6486, "vila": 23840, "412": 25873, "torpedo": 9862, "##valent": 24879, "crap": 10231, "infinite": 10709, "analytical": 17826, "patience": 11752, "joshua": 9122, "disbelief": 12537, "gr": 24665, "mining": 5471, "demolition": 12451, "dec": 11703, "window": 3332, "##ev": 6777, "##vant": 18941, "division": 2407, "##ction": 7542, "\u3057": 1657, "##eses": 23072, "leaks": 29324, "[unused597]": 602, "gills": 29468, "##anga": 18222, "spilling": 18054, "touchdown": 7921, "bane": 25163, "\u0131": 1104, "classifications": 26739, "##38": 22025, "[unused477]": 482, "steward": 17946, "avail": 24608, "nudged": 18666, "##gb": 18259, "lamar": 19756, "##ated": 4383, "henry": 2888, "1953": 4052, "passengers": 5467, "estate": 3776, "det": 20010, "1886": 6929, "telegraph": 10013, "alleging": 23294, "sole": 7082, "shooter": 13108, "endurance": 14280, "relation": 7189, "dresden": 12983, "##rks": 19987, "[unused205]": 210, "ravine": 23188, "causal": 28102, "autobiographical": 18534, "cereal": 20943, "[unused914]": 919, "authoritative": 23949, "\u0f62": 1434, "barrister": 19805, "forcing": 6932, "socrates": 26772, "##\u209c": 30099, "accident": 4926, "superhuman": 27061, "properties": 5144, "##open": 26915, "gradual": 16612, "\u5d0e": 1834, "advisors": 18934, "[unused55]": 56, "agitation": 22356, "[unused535]": 540, "widening": 17973, "ejected": 22607, "##glers": 25555, "doctor": 3460, "thriller": 10874, "lyndon": 23037, "recovering": 13400, "pointe": 26119, "##wich": 12414, "##mt": 20492, "brigades": 14589, "\u30a1": 1692, "affirmative": 27352, "dwight": 14304, "ivo": 28346, "##mus": 7606, "nantes": 25387, "fae": 17282, "ch": 10381, "##ale": 9453, "\u535a": 1786, "schneider": 15159, "formidable": 18085, "282": 26267, "locks": 11223, "auf": 21200, "tangle": 24453, "thwarted": 28409, "machines": 6681, "cd": 3729, "drops": 9010, "##logists": 18738, "reyes": 12576, "taps": 25316, "pepsi": 27237, "##dance": 25514, "\u2090": 1560, "counties": 5721, "mathematical": 8045, "hm": 20287, "\u30db": 1722, "bared": 23485, "bromwich": 27888, "abe": 14863, "lunged": 17755, "abundant": 12990, "lizards": 23898, "\u4ec1": 1758, "evie": 26400, "preferred": 6871, "buildings": 3121, "2011": 2249, "slight": 7263, "[unused607]": 612, "ruth": 7920, "shaky": 15311, "patriot": 16419, "bestowed": 17398, "##ech": 15937, "analyzed": 16578, "boost": 12992, "\u2665": 1625, "virginia": 3448, "strategies": 9942, "prostitution": 15016, "generate": 9699, "premise": 18458, "shia": 20474, "criminals": 12290, "\u092a": 1328, "stares": 14020, "frigate": 15437, "amp": 23713, "ironically": 18527, "billions": 25501, "[unused506]": 511, "electronics": 8139, "oaks": 13396, "cruise": 8592, "discover": 7523, "spruce": 19893, "receipts": 28258, "shrub": 15751, "britannia": 24677, "##ndo": 15482, "pistols": 18248, "showed": 3662, "kamal": 21911, "soyuz": 29412, "##lde": 17920, "mutations": 14494, "parker": 6262, "risk": 3891, "##ear": 14644, "allegheny": 21192, "1917": 4585, "1688": 24082, "room": 2282, "preach": 25250, "##nds": 18376, "caitlin": 27555, "ups": 11139, "##ater": 24932, "hindi": 9269, "secrecy": 20259, "acid": 5648, "playfully": 22608, "shaded": 25273, "sly": 18230, "leroy": 19103, "daily": 3679, "##\u3066": 30191, "sunday": 4465, "purely": 11850, "torre": 22047, "munoz": 23685, "mama": 9588, "wasps": 23146, "jars": 25067, "##eber": 22669, "##born": 10280, "periodic": 15861, "entertain": 20432, "barriers": 13500, "branching": 23346, "jarvis": 21072, "1750": 18171, "screen": 3898, "relevant": 7882, "braun": 21909, "##lent": 16136, "cheer": 15138, "whitehead": 23257, "corresponding": 7978, "amulet": 25087, "##\u56fd": 30325, "adoption": 9886, "believed": 3373, "##iser": 17288, "agitated": 21568, "##eri": 11124, "##made": 21565, "bump": 16906, "##dder": 20791, "garrett": 9674, "##r": 2099, "ritter": 23168, "powered": 6113, "nuclear": 4517, "firth": 25138, "tortured": 12364, "rotating": 13618, "##sca": 15782, "westward": 15165, "##chase": 26300, "##ych": 17994, "midtown": 27219, "darlington": 19667, "cries": 12842, "##law": 14919, "thrilling": 26162, "##zy": 9096, "theoretical": 9373, "1666": 27407, "[unused712]": 717, "visited": 4716, "carriages": 17744, "mistakenly": 20706, "transgender": 16824, "[unused428]": 433, "##ryl": 23320, "##86": 20842, "##chy": 11714, "language": 2653, "remedy": 19519, "nfl": 5088, "tidal": 15065, "muse": 18437, "178": 19289, "constructing": 15696, "fremantle": 20358, "shakespeare": 8101, "squeezed": 7757, "##mot": 18938, "##\u00ae": 29656, "worn": 6247, "bingham": 24579, "partnered": 12404, "##tish": 24788, "growls": 27825, "belgium": 5706, "1850": 7973, "##rlin": 19403, "madly": 29179, "genealogical": 29606, "sic": 14387, "otherwise": 4728, "barker": 12852, "buried": 3950, "begins": 4269, "sherlock": 20052, "horrified": 14603, "bridgeport": 27986, "detected": 11156, "lecture": 8835, "##quin": 12519, "behave": 16582, "kaplan": 22990, "##ulent": 27581, "scholars": 5784, "specialized": 7772, "##space": 23058, "folder": 19622, "souls": 9293, "##\u65b0": 30388, "outer": 6058, "\u3084": 1682, "abigail": 15983, "[unused269]": 274, "noises": 14950, "##harat": 28074, "radiating": 23229, "boards": 7923, "there": 2045, "winged": 14462, "trapped": 7567, "fuels": 20145, "christoph": 21428, "##pr": 18098, "characterization": 23191, "syriac": 24109, "decisive": 13079, "_": 1035, "406": 27433, "\u3008": 1637, "[unused576]": 581, "[unused418]": 423, "gaining": 8550, "fx": 23292, "contrary": 10043, "gets": 4152, "example": 2742, "stretched": 7121, "walkover": 17495, "contender": 20127, "weaponry": 22711, "scholarship": 6566, "##nded": 25848, "expected": 3517, "forced": 3140, "majors": 15279, "sim": 21934, "researches": 27338, "amalgamated": 17143, "##ense": 16700, "chocolate": 7967, "##emy": 26662, "rendering": 14259, "plunging": 29059, "vogel": 27063, "radius": 12177, "##ston": 7106, "mexican": 4916, "livingston": 14109, "[unused21]": 22, "speculative": 23250, "near": 2379, "mercy": 8673, "##iot": 25185, "populous": 20151, "alternately": 23554, "1721": 27689, "##grounds": 28951, "frankly": 19597, "diplomatic": 8041, "##ject": 20614, "dortmund": 23912, "[unused530]": 535, "demons": 7942, "chronicles": 11906, "trailers": 21389, "wing": 3358, "##\u0454": 29759, "repair": 7192, "sustainable": 9084, "[unused511]": 516, "pious": 25020, "enoch": 28178, "shay": 18789, "political": 2576, "engines": 5209, "lucia": 12337, "prem": 26563, "##smith": 21405, "\u0997": 1355, "\u221e": 1601, "derrick": 18928, "108": 10715, "##ler": 3917, "guns": 4409, "fitness": 10516, "edison": 17046, "finer": 26954, "inversion": 28527, "cakes": 22619, "fiba": 13651, "hog": 27589, "josh": 6498, "##ganj": 22738, "##ball": 7384, "##mut": 28120, "flowed": 13230, "icons": 18407, "poll": 8554, "morality": 16561, "1960": 3624, "stayed": 4370, "presley": 17229, "##sbury": 18065, "celtic": 8730, "colorful": 14231, "margins": 17034, "31": 2861, "fence": 8638, "baptiste": 17329, "renew": 20687, "##hire": 20908, "waterways": 21938, "##dication": 25027, "domains": 13100, "lava": 13697, "vintage": 13528, "##eries": 28077, "admiration": 17005, "scars": 13521, "papal": 12156, "psyche": 25774, "nightmares": 15446, "stumbled": 9845, "##kot": 23342, "dove": 10855, "[unused958]": 963, "examiner": 19684, "[unused188]": 193, "dorian": 16092, "divine": 7746, "lahore": 15036, "penthouse": 22855, "civilization": 10585, "mayors": 21941, "\u0b95": 1382, "demonstrated": 7645, "unnatural": 21242, "##eb": 15878, "attend": 5463, "branched": 21648, "collision": 12365, "remainder": 6893, "pep": 27233, "vincenzo": 24712, "surprises": 20096, "obe": 15578, "defenses": 13345, "##tized": 23355, "contest": 5049, "preferences": 18394, "campuses": 13696, "##pd": 17299, "caste": 14542, "composition": 5512, "rats": 11432, "bazaar": 22774, "promoter": 15543, "smug": 20673, "##lind": 27164, "nutrient": 26780, "arousal": 18905, "garion": 12523, "rocker": 24779, "##grave": 12830, "furnace": 17533, "anti": 3424, "##page": 13704, "unfair": 15571, "231": 20304, "ammonia": 25874, "proceeded": 8979, "##ipe": 15457, "staffordshire": 17052, "133": 14506, "variants": 10176, "casualty": 19844, "##fest": 14081, "wavelength": 19934, "mercenary": 22146, "disrupt": 23217, "zoning": 27462, "##f": 2546, "tolerant": 23691, "##uca": 18100, "##54": 27009, "sugarcane": 28910, "##ts": 3215, "jing": 21536, "121": 12606, "fact": 2755, "td": 14595, "##mouth": 14359, "utah": 6646, "lore": 19544, "##ausen": 25701, "tools": 5906, "##sis": 6190, "moritz": 28461, "dynasty": 5321, "seminary": 8705, "sibling": 22941, "loser": 10916, "place": 2173, "##awa": 10830, "harpsichord": 26504, "##metric": 12589, "commentary": 8570, "ideally": 28946, "##cca": 16665, "cruel": 10311, "##umble": 26607, "airport": 3199, "destined": 16036, "compatible": 11892, "##wice": 23425, "morphological": 24012, "169": 18582, "scar": 11228, "throws": 11618, "pts": 19637, "tracey": 25984, "mechanical": 6228, "tasha": 25448, "plush": 27729, "chiba": 27368, "malik": 14360, "shipbuilding": 16802, "##\u56db": 30324, "observer": 9718, "ratios": 21879, "therefore": 3568, "##xed": 19068, "highland": 10983, "mean": 2812, "genus": 3562, "pleased": 7537, "boise": 23193, "range": 2846, "transition": 6653, "darkest": 23036, "fighters": 7299, "leader": 3003, "aback": 26575, "elizabeth": 3870, "clayton": 11811, "biotechnology": 20353, "trinity": 7124, "retrospective": 15354, "##\u0f62": 29970, "instrumentation": 16015, "greer": 25939, "shaun": 16845, "bled": 23919, "immigrants": 7489, "[unused239]": 244, "turner": 6769, "##hara": 11077, "editor": 3559, "essay": 9491, "##litz": 24725, "becky": 14407, "[unused919]": 924, "34": 4090, "protagonist": 10191, "##if": 10128, "brig": 16908, "insider": 25297, "fourier": 26899, "##gr": 16523, "##alia": 22786, "oh": 2821, "##ban": 8193, "##mable": 24088, "external": 6327, "industrial": 3919, "st": 2358, "property": 3200, "soil": 5800, "##tting": 13027, "refurbishment": 24478, "\u30cb": 1716, "inhuman": 29582, "tempo": 13657, "tropical": 5133, "deal": 3066, "joe": 3533, "sheppard": 24976, "quantitative": 20155, "staggering": 26233, "chilled": 23362, "helen": 6330, "\u6a4b": 1885, "lille": 22479, "##aria": 10980, "curvature": 25045, "elected": 2700, "jim": 3958, "nigeria": 7387, "pendulum": 28300, "primal": 22289, "cornell": 10921, "\u0289": 1131, "cheshire": 13789, "lad": 14804, "symposium": 17899, "popular": 2759, "pawn": 19175, "ballistic": 19630, "speeding": 21485, "##ral": 7941, "earlier": 3041, "dreamer": 24726, "##lah": 14431, "cfl": 18830, "##ory": 10253, "##amen": 27245, "shells": 10986, "gains": 12154, "##tique": 28437, "dominican": 10104, "conflict": 4736, "zombie": 11798, "learn": 4553, "##oint": 25785, "[unused629]": 634, "dahl": 27934, "##ings": 8613, "axis": 8123, "survived": 5175, "christophe": 23978, "effortlessly": 29483, "studied": 3273, "provinces": 6941, "qualification": 8263, "snowfall": 26043, "preferring": 21393, "heads": 4641, "##plex": 19386, "##ance": 6651, "luggage": 17434, "compartments": 27998, "[unused47]": 48, "##von": 17789, "andersen": 18308, "##akes": 20060, "\u2282": 1610, "##xie": 16898, "activation": 13791, "gaulle": 28724, "sire": 15785, "##unt": 16671, "headlined": 25214, "bro": 22953, "colombia": 7379, "turquoise": 28653, "bragg": 23678, "##aca": 19629, "curt": 20099, "\u5e74": 1840, "##kling": 20260, "according": 2429, "residence": 5039, "##worthy": 13966, "sweating": 18972, "thickness": 14983, "sec": 10819, "audible": 19525, "##\u043d\u0430": 19865, "turing": 28639, "##\u0433": 29741, "feudal": 16708, "gives": 3957, "tone": 4309, "trunk": 8260, "stronger": 6428, "colombo": 16224, "divinity": 16968, "\u3066": 1665, "uh": 7910, "##\u05e6": 29809, "##qing": 19784, "tristan": 9822, "##ulation": 9513, "beside": 3875, "custom": 7661, "##yre": 16363, "poole": 19107, "padres": 21577, "1635": 27426, "maintain": 5441, "glint": 25263, "atlas": 11568, "cyclist": 14199, "ing": 13749,
[...]
